{"vocab": {"M": 0, "z": 1, "K": 2, "C": 3, "W": 4, "n": 5, "m": 6, "f": 7, "'": 8, "G": 9, "H": 10, "y": 11, "8": 12, "d": 13, "a": 14, "U": 15, "o": 16, "x": 17, "!": 18, "O": 19, "b": 20, "\n": 21, "j": 22, "N": 23, "T": 24, ">": 25, "L": 26, "J": 27, "0": 28, "w": 29, "7": 30, "2": 31, "6": 32, "e": 33, "<": 34, "V": 35, "X": 36, "\u2026": 37, "i": 38, "h": 39, "Y": 40, "c": 41, "Z": 42, "v": 43, "r": 44, "E": 45, " ": 46, "\u2019": 47, "s": 48, "p": 49, "\"": 50, "B": 51, "9": 52, "t": 53, "Q": 54, "P": 55, "?": 56, "l": 57, "5": 58, "%": 59, "I": 60, "&": 61, ",": 62, "3": 63, "D": 64, "(": 65, "F": 66, "4": 67, "u": 68, ")": 69, ".": 70, "$": 71, "/": 72, "A": 73, "1": 74, "k": 75, "R": 76, ":": 77, "g": 78, "-": 79, "q": 80, "S": 81, "</w>": 82, "s</w>": 83, "e</w>": 84, "t</w>": 85, "n</w>": 86, "er": 87, "th": 88, "d</w>": 89, "es": 90, "ti": 91, ":</w>": 92, "on": 93, "an": 94, "ar": 95, "in": 96, "ou": 97, "y</w>": 98, "o</w>": 99, "al": 100, "the</w>": 101, "or": 102, "ha": 103, "en": 104, "ers</w>": 105, "a</w>": 106, "tion": 107, "in</w>": 108, "sw": 109, "tions</w>": 110, "An": 111, "ues": 112, "is</w>": 113, "f</w>": 114, "uestions</w>": 115, "swers</w>": 116, "Questions</w>": 117, "Answers</w>": 118, "?</w>": 119, "es</w>": 120, "an</w>": 121, ",</w>": 122, "ed</w>": 123, "l</w>": 124, "ic": 125, "on</w>": 126, "g</w>": 127, "you": 128, "er</w>": 129, "re": 130, "to</w>": 131, "of</w>": 132, "om": 133, "st": 134, "il": 135, "hat</w>": 136, "Th": 137, "ing</w>": 138, "est</w>": 139, "at</w>": 140, "at": 141, "and</w>": 142, "ri": 143, "are</w>": 144, "al</w>": 145, "ve</w>": 146, "you</w>": 147, "op": 148, "What</w>": 149, "ow": 150, "h</w>": 151, "le</w>": 152, "it": 153, "ac": 154, "le": 155, "am": 156, "The</w>": 157, "or</w>": 158, "pe": 159, "k</w>": 160, "us": 161, "di": 162, "be": 163, "li": 164, "r</w>": 165, "that</w>": 166, "ly</w>": 167, "ur": 168, "\"</w>": 169, "Best</w>": 170, "en</w>": 171, "th</w>": 172, "st</w>": 173, "ot</w>": 174, "ere</w>": 175, "ol": 176, "ig": 177, "have</w>": 178, "'s</w>": 179, "um": 180, "not</w>": 181, "as</w>": 182, "tr": 183, "el": 184, "ople</w>": 185, "ir": 186, "oo": 187, "ver": 188, "than</w>": 189, "ch": 190, "ill</w>": 191, "for</w>": 192, "la": 193, "mo": 194, "ab": 195, "it</w>": 196, "wh": 197, "pen": 198, "ag": 199, ".</w>": 200, "com": 201, "ar</w>": 202, "un": 203, "all</w>": 204, "sh": 205, "No</w>": 206, "de": 207, "ans</w>": 208, "ow</w>": 209, "ent": 210, "ex": 211, "can</w>": 212, "will</w>": 213, "the": 214, "ent</w>": 215, "no</w>": 216, "if</w>": 217, "your</w>": 218, "people</w>": 219, "ro": 220, "wi": 221, "tion</w>": 222, "hap": 223, "ca": 224, "ci": 225, "I</w>": 226, "ra": 227, "wor": 228, "oun": 229, "si": 230, "ore</w>": 231, "Wh": 232, "by</w>": 233, "You": 234, "ma": 235, "con": 236, "ce</w>": 237, "ing": 238, "be</w>": 239, "do": 240, "ul": 241, "happen": 242, "Yes</w>": 243, "do</w>": 244, "You</w>": 245, "ds</w>": 246, "ld</w>": 247, "with</w>": 248, "m</w>": 249, "me": 250, "uc": 251, "p</w>": 252, "If</w>": 253, "ity</w>": 254, "has</w>": 255, "im": 256, "as": 257, "one</w>": 258, "more</w>": 259, "ts</w>": 260, "lan": 261, "par": 262, "per": 263, "vi": 264, "ec": 265, "Am": 266, "was</w>": 267, "happens</w>": 268, "S</w>": 269, "use</w>": 270, "most</w>": 271, "et</w>": 272, "w</w>": 273, "It</w>": 274, "ic</w>": 275, "coun": 276, "fr": 277, "eric": 278, "Americ": 279, "leg": 280, "for": 281, "tic": 282, "oth": 283, "ame</w>": 284, "ally</w>": 285, "-</w>": 286, "There</w>": 287, "ich</w>": 288, "ali": 289, "os": 290, "out</w>": 291, "any</w>": 292, "om</w>": 293, "hum": 294, "ver</w>": 295, "som": 296, "what</w>": 297, "ad": 298, "ll</w>": 299, "ear": 300, "ay</w>": 301, "ess</w>": 302, "legal</w>": 303, "ht</w>": 304, "enti": 305, "se": 306, "all": 307, "pro": 308, "comm": 309, "ni": 310, "ta": 311, "'t</w>": 312, "ir</w>": 313, "ne": 314, "ood</w>": 315, "is": 316, "tri": 317, "from</w>": 318, "ould</w>": 319, "0</w>": 320, "sti": 321, "U</w>": 322, "ks</w>": 323, "ff": 324, "ke</w>": 325, "res": 326, "Ch": 327, "ap": 328, "we": 329, "str": 330, "ate</w>": 331, "dr": 332, "spe": 333, "Ne": 334, "age</w>": 335, "sp": 336, "Fr": 337, "land</w>": 338, "cause</w>": 339, "they</w>": 340, "cl": 341, "ned</w>": 342, "kn": 343, "bu": 344, "ch</w>": 345, "su": 346, "tin": 347, "tim": 348, "ph": 349, "int": 350, "sh</w>": 351, "co": 352, "te": 353, "pers": 354, "ence</w>": 355, "bl": 356, "does</w>": 357, "id": 358, "sci": 359, "af": 360, "ay": 361, "How</w>": 362, "spea": 363, "own</w>": 364, "tur": 365, "to": 366, "se</w>": 367, "many</w>": 368, "In</w>": 369, "othing</w>": 370, "about</w>": 371, "fe": 372, "Ar": 373, "he": 374, "gu": 375, "lar": 376, "who</w>": 377, "countr": 378, "their</w>": 379, "ke": 380, "pl": 381, "En": 382, "king</w>": 383, "name</w>": 384, "am</w>": 385, "Eng": 386, "ad</w>": 387, "been</w>": 388, "qu": 389, "get</w>": 390, "Un": 391, "did</w>": 392, "umb": 393, "St": 394, "there</w>": 395, "ce": 396, "ting</w>": 397, "lig": 398, "because</w>": 399, "ang": 400, "Can": 401, "col": 402, "ine</w>": 403, "No": 404, "ban": 405, "ular</w>": 406, "speak</w>": 407, "ong</w>": 408, "ink</w>": 409, "only</w>": 410, "ment</w>": 411, "less</w>": 412, "scienti": 413, "country</w>": 414, "ents</w>": 415, "ob": 416, "New</w>": 417, "A</w>": 418, "ated</w>": 419, "banned</w>": 420, "ath": 421, "can": 422, "sts</w>": 423, "US</w>": 424, "der": 425, "ter</w>": 426, "won</w>": 427, "ell</w>": 428, "ight</w>": 429, "ve": 430, "orig": 431, "best</w>": 432, "ited</w>": 433, "fir": 434, "der</w>": 435, "uch</w>": 436, "illegal</w>": 437, "real</w>": 438, "ack</w>": 439, "Pe": 440, "over": 441, "id</w>": 442, "used</w>": 443, "People</w>": 444, "up</w>": 445, "Nothing</w>": 446, "car": 447, "ree</w>": 448, "ates</w>": 449, "countri": 450, "UK": 451, "some": 452, "United</w>": 453, "All</w>": 454, "act</w>": 455, "Fran": 456, "19": 457, "na": 458, "ted</w>": 459, "hig": 460, "some</w>": 461, "Who</w>": 462, "which</w>": 463, "Which</w>": 464, "numb": 465, "ter": 466, "were</w>": 467, "time</w>": 468, "ous</w>": 469, "ors</w>": 470, "ue</w>": 471, "mon": 472, "don</w>": 473, "oug": 474, "mar": 475, "ever": 476, "may</w>": 477, "Americans</w>": 478, "person</w>": 479, "sa": 480, "als</w>": 481, "ed": 482, "fic": 483, "gr": 484, "partic": 485, "langu": 486, "Nobe": 487, "Nobel</w>": 488, "ves</w>": 489, "gest</w>": 490, "ace</w>": 491, "world</w>": 492, "but</w>": 493, "countries</w>": 494, "land": 495, "ud": 496, "Ger": 497, "ist": 498, "og": 499, "our": 500, "pr": 501, "man</w>": 502, "pa": 503, "ings</w>": 504, "evi": 505, "1</w>": 506, "ms</w>": 507, "into</w>": 508, "thing</w>": 509, "Bri": 510, "able</w>": 511, "know</w>": 512, "Canad": 513, "po": 514, "ind</w>": 515, "br": 516, "human</w>": 517, "year": 518, "heal": 519, "au": 520, "yone</w>": 521, "fl": 522, "Pri": 523, "est": 524, "word</w>": 525, "first</w>": 526, "particular</w>": 527, "ry</w>": 528, "Eur": 529, "chil": 530, "should</w>": 531, "et": 532, "por": 533, "cur": 534, "come</w>": 535, "vers": 536, "food</w>": 537, "wat": 538, "op</w>": 539, "Is</w>": 540, "ess": 541, "fe</w>": 542, "law": 543, "ste": 544, "dre": 545, "Ear": 546, "boo": 547, "humans</w>": 548, "over</w>": 549, "drink</w>": 550, "oc": 551, "tive</w>": 552, "dis": 553, "when</w>": 554, "American</w>": 555, "other</w>": 556, "origin": 557, "Priz": 558, "bo": 559, "us</w>": 560, "ans": 561, "sic": 562, "fa": 563, "rec": 564, "part</w>": 565, "ect</w>": 566, "fam": 567, "cre": 568, "pos": 569, "ays</w>": 570, "UK</w>": 571, "ard</w>": 572, "sy": 573, "att": 574, "lear": 575, "verage</w>": 576, "this</w>": 577, "kes</w>": 578, "ven</w>": 579, "Earth</w>": 580, "te</w>": 581, "Yor": 582, "In": 583, "ation</w>": 584, "amp": 585, "still</w>": 586, "Are</w>": 587, "ning</w>": 588, "years</w>": 589, "tra": 590, "Chri": 591, "Au": 592, "lec": 593, "ust</w>": 594, "ear</w>": 595, "city</w>": 596, "anim": 597, "comment": 598, "%</w>": 599, "ous": 600, "tu": 601, "would</w>": 602, "average</w>": 603, "go</w>": 604, "per</w>": 605, "where</w>": 606, "Mex": 607, "way</w>": 608, "call": 609, "dence</w>": 610, "Mexic": 611, "yp": 612, "Can</w>": 613, "inv": 614, "cons": 615, "Ire": 616, "'</w>": 617, "ach": 618, "much</w>": 619, "ons</w>": 620, "ant</w>": 621, "chang": 622, "Europ": 623, "fu": 624, "ore": 625, "gra": 626, "Chin": 627, "overn": 628, "language</w>": 629, "ysic": 630, "called</w>": 631, "life</w>": 632, "tional</w>": 633, "pan": 634, "rain": 635, "comment</w>": 636, "Fren": 637, "clos": 638, "Je": 639, "pu": 640, "orn</w>": 641, "ia</w>": 642, "ice</w>": 643, "her</w>": 644, "ties</w>": 645, "ten</w>": 646, "ss</w>": 647, "pre": 648, "uring</w>": 649, "uni": 650, "any": 651, "cannot</w>": 652, "Canada</w>": 653, "ru": 654, "bet": 655, "Christi": 656, "cu": 657, "des": 658, "and": 659, "work</w>": 660, "Cali": 661, "ough</w>": 662, "evidence</w>": 663, "French</w>": 664, "Califor": 665, "Californi": 666, "onal": 667, "its</w>": 668, "arm": 669, "Ph": 670, "cri": 671, "rig": 672, "pen</w>": 673, "fla": 674, "agree</w>": 675, "versity</w>": 676, "York</w>": 677, "govern": 678, "Where</w>": 679, "hear": 680, "Uni": 681, "after</w>": 682, "fact</w>": 683, "Austr": 684, "Australi": 685, "arti": 686, "eat</w>": 687, "lie</w>": 688, "big": 689, "pres": 690, "someone</w>": 691, "France</w>": 692, "makes</w>": 693, "wa": 694, "ft</w>": 695, "anc": 696, "lo": 697, "fil": 698, "sch": 699, "number</w>": 700, "books</w>": 701, "during</w>": 702, "end</w>": 703, "gre": 704, "ving</w>": 705, "ats</w>": 706, "men</w>": 707, "pop": 708, "ese</w>": 709, "ins</w>": 710, "sal": 711, "ies</w>": 712, "mb": 713, "ved</w>": 714, "os</w>": 715, "org": 716, "ill": 717, "pit": 718, "Mus": 719, "our</w>": 720, "fall</w>": 721, "tain</w>": 722, "lish</w>": 723, "England</w>": 724, "consum": 725, "Ireland</w>": 726, "born</w>": 727, "i</w>": 728, "ars</w>": 729, "ther": 730, "bre": 731, "ath</w>": 732, "Why</w>": 733, "Jap": 734, "2</w>": 735, "end": 736, "ying</w>": 737, "owed</w>": 738, "pla": 739, "cla": 740, "place</w>": 741, "government</w>": 742, "20": 743, "UF": 744, "ate": 745, "stand</w>": 746, "dri": 747, "pow": 748, "sin": 749, "health": 750, "proven</w>": 751, "UFO": 752, "man": 753, "ines</w>": 754, "ep": 755, "ial</w>": 756, "tw": 757, "ussi": 758, "sing": 759, "America</w>": 760, "affor": 761, "Prize</w>": 762, "ways</w>": 763, "ho": 764, "Gre": 765, "out": 766, "ric": 767, "ple</w>": 768, "acc": 769, "bir": 770, "ental</w>": 771, "ets</w>": 772, "plan": 773, "inter": 774, "everyone</w>": 775, "typ": 776, "La": 777, "de</w>": 778, "\"?</w>": 779, "wom": 780, "ts": 781, "und": 782, "dic": 783, "cep": 784, "intel": 785, "might</w>": 786, "always</w>": 787, "intellig": 788, "we</w>": 789, "Par": 790, "El": 791, "des</w>": 792, "ite</w>": 793, "sle": 794, "sel": 795, "diff": 796, "eff": 797, "ather</w>": 798, "since</w>": 799, "It": 800, "his</w>": 801, "oes</w>": 802, "gi": 803, "die</w>": 804, "old</w>": 805, "ass": 806, "say</w>": 807, "see</w>": 808, "said</w>": 809, "change</w>": 810, "happen</w>": 811, "Mo": 812, "ery</w>": 813, "Re": 814, "tou": 815, "cra": 816, "dia</w>": 817, "ep</w>": 818, "never</w>": 819, "turn</w>": 820, "dren</w>": 821, "Russi": 822, "cha": 823, "His</w>": 824, "ques": 825, "shed</w>": 826, "rain</w>": 827, "uck": 828, "ampir": 829, "gs</w>": 830, "sk": 831, "Do</w>": 832, "ble</w>": 833, "lie": 834, "ure</w>": 835, "really</w>": 836, "good</w>": 837, "ating</w>": 838, "largest</w>": 839, "olog": 840, "find</w>": 841, "dn</w>": 842, "bad</w>": 843, "long</w>": 844, "such</w>": 845, "true</w>": 846, "hour": 847, "hard</w>": 848, "children</w>": 849, "ey": 850, "ics</w>": 851, "dy</w>": 852, "ht": 853, "them</w>": 854, "EU</w>": 855, "States</w>": 856, "sych": 857, "allowed</w>": 858, "ain": 859, "my</w>": 860, "ty</w>": 861, "ers": 862, "ast</w>": 863, "fic</w>": 864, "stic": 865, "tell</w>": 866, "hest</w>": 867, "Briti": 868, "weather</w>": 869, "Itali": 870, "vampir": 871, "belie": 872, "bi": 873, "vel": 874, "coo": 875, "low</w>": 876, "uck</w>": 877, "hair</w>": 878, "00</w>": 879, "numbers</w>": 880, "become</w>": 881, "differ": 882, "question</w>": 883, "British</w>": 884, "ge</w>": 885, "cr": 886, "fin": 887, "depen": 888, "now</w>": 889, "ids</w>": 890, "same</w>": 891, "smo": 892, "water</w>": 893, "Europe": 894, "English</w>": 895, "afford": 896, "Su": 897, "ary</w>": 898, "Nor": 899, "mil": 900, "owing</w>": 901, "ack": 902, "Lon": 903, "mus": 904, "bab": 905, "law</w>": 906, "ture</w>": 907, "cold</w>": 908, "parents</w>": 909, "high</w>": 910, "year</w>": 911, "national</w>": 912, "biggest</w>": 913, "Japan</w>": 914, "ficial</w>": 915, "b</w>": 916, "ding</w>": 917, "act": 918, "pol": 919, "spen": 920, "ull</w>": 921, "ater": 922, "recor": 923, "physic": 924, "heart</w>": 925, "sm": 926, "ates": 927, "ool</w>": 928, "nex": 929, "extr": 930, "came</w>": 931, "day</w>": 932, "doors</w>": 933, "port</w>": 934, "learn</w>": 935, "war": 936, "sc": 937, "ity": 938, "sThe</w>": 939, "dol": 940, "ns</w>": 941, "take</w>": 942, "iri": 943, "scientific": 944, "California</w>": 945, "vacc": 946, "type</w>": 947, "psych": 948, "scientific</w>": 949, "different</w>": 950, "scientifically</w>": 951, "5</w>": 952, "Jo": 953, "Bo": 954, "of": 955, "ink": 956, "ak": 957, "pur": 958, "tru": 959, "mp": 960, "mir": 961, "ound</w>": 962, "contr": 963, "ws</w>": 964, "times</w>": 965, "identi": 966, "light</w>": 967, "every</w>": 968, "ful</w>": 969, "women</w>": 970, "effec": 971, "hours</w>": 972, "extrater": 973, "extraterres": 974, "extraterrestri": 975, "so</w>": 976, "val": 977, "fi": 978, "go": 979, "cat</w>": 980, "ist</w>": 981, "sig": 982, "hel": 983, "foo": 984, "happened</w>": 985, "well</w>": 986, "just</w>": 987, "anything</w>": 988, "disagree</w>": 989, "ev": 990, "sol": 991, "air": 992, "char": 993, "ick": 994, "dia": 995, "time": 996, "need</w>": 997, "known</w>": 998, "illar": 999, "marry</w>": 1000, "famous</w>": 1001, "Australia</w>": 1002, "Elon</w>": 1003, "next</w>": 1004, "spiri": 1005, "(</w>": 1006, "ind": 1007, "iest</w>": 1008, "usin": 1009, "10</w>": 1010, "like</w>": 1011, "too</w>": 1012, "few</w>": 1013, "strong</w>": 1014, "scientists</w>": 1015, "origin</w>": 1016, "demon": 1017, "Kore": 1018, "close</w>": 1019, "ross</w>": 1020, "artificial</w>": 1021, "school</w>": 1022, "ee</w>": 1023, "ori": 1024, "il</w>": 1025, "Rom": 1026, "The": 1027, "ops</w>": 1028, "ror</w>": 1029, "moon</w>": 1030, "ims</w>": 1031, "Afr": 1032, "make</w>": 1033, "spor": 1034, "sun</w>": 1035, "key</w>": 1036, "stud": 1037, "originally</w>": 1038, "stitu": 1039, "film</w>": 1040, "memb": 1041, "organ": 1042, "Musli": 1043, "medic": 1044, "believe</w>": 1045, "Afric": 1046, "re</w>": 1047, "ert</w>": 1048, "ens</w>": 1049, "fo": 1050, "red</w>": 1051, "el</w>": 1052, "ger</w>": 1053, "ily</w>": 1054, "bur": 1055, "ple": 1056, "fro": 1057, "Ap": 1058, "sug": 1059, "under": 1060, "Germany</w>": 1061, "exist": 1062, "lawy": 1063, "flag</w>": 1064, "popular</w>": 1065, "capit": 1066, "self</w>": 1067, "devel": 1068, "London</w>": 1069, "Mar": 1070, "ses</w>": 1071, "ory</w>": 1072, "ther</w>": 1073, "lit": 1074, "wal": 1075, "pec": 1076, "fly</w>": 1077, "fy</w>": 1078, "ide": 1079, "form</w>": 1080, "ever</w>": 1081, "under</w>": 1082, "estab": 1083, "stop</w>": 1084, "elec": 1085, "Donal": 1086, "UFO</w>": 1087, "vampires</w>": 1088, "cook": 1089, "Donald</w>": 1090, "US": 1091, "On": 1092, "tre": 1093, "sNo</w>": 1094, "exper": 1095, "'ll</w>": 1096, "know": 1097, "canc": 1098, "196": 1099, "Germ": 1100, "something</w>": 1101, "curr": 1102, "inste": 1103, "higher</w>": 1104, "Nether": 1105, "8</w>": 1106, "oul": 1107, "are": 1108, "ations</w>": 1109, "min": 1110, "fat</w>": 1111, "tes</w>": 1112, "Bar": 1113, "wit": 1114, "outh</w>": 1115, "bas": 1116, "jec": 1117, "plac": 1118, "requ": 1119, "France": 1120, "creas": 1121, "great": 1122, "smoke</w>": 1123, "Hillar": 1124, "Hillary</w>": 1125, "9</w>": 1126, ")</w>": 1127, "me</w>": 1128, "Be": 1129, "jo": 1130, "du": 1131, "Al": 1132, "illi": 1133, "ele": 1134, "last</w>": 1135, "comes</w>": 1136, "ently</w>": 1137, "pes</w>": 1138, "ston</w>": 1139, "prot": 1140, "ney</w>": 1141, "mis": 1142, "ish</w>": 1143, "Sco": 1144, "coff": 1145, "person": 1146, "working</w>": 1147, "tive": 1148, "De": 1149, "health</w>": 1150, "ween</w>": 1151, "learning</w>": 1152, "animals</w>": 1153, "China</w>": 1154, "Christians</w>": 1155, "University</w>": 1156, "twent": 1157, "demonstr": 1158, "mirror</w>": 1159, "Only</w>": 1160, "twenty</w>": 1161, "he</w>": 1162, "tin</w>": 1163, "cor": 1164, "ters</w>": 1165, "ces</w>": 1166, "ref": 1167, "riv": 1168, "ster": 1169, "ac</w>": 1170, "Tr": 1171, "Ang": 1172, "Har": 1173, "ented</w>": 1174, "lation</w>": 1175, "oci": 1176, "fing": 1177, "duc": 1178, "movi": 1179, "visi": 1180, "could</w>": 1181, "inking</w>": 1182, "languag": 1183, "left</w>": 1184, "busin": 1185, "shoul": 1186, "Angel": 1187, "shouldn</w>": 1188, "ps</w>": 1189, "gen": 1190, "your": 1191, "um</w>": 1192, "adi": 1193, "bef": 1194, "lands</w>": 1195, "tal</w>": 1196, "rate</w>": 1197, "shown</w>": 1198, "free</w>": 1199, "ock</w>": 1200, "publ": 1201, "deca": 1202, "obese</w>": 1203, "play": 1204, "drive</w>": 1205, "undam": 1206, "Russia</w>": 1207, "ology</w>": 1208, "Sun</w>": 1209, "States": 1210, "truth</w>": 1211, "Scot": 1212, "coffee</w>": 1213, "between</w>": 1214, "before</w>": 1215, "undamental</w>": 1216, "4</w>": 1217, "6</w>": 1218, "ine": 1219, "Bi": 1220, "Ro": 1221, "sn": 1222, "atur": 1223, "ire</w>": 1224, "thr": 1225, "ound": 1226, "enom": 1227, "iz": 1228, "pas": 1229, "ball</w>": 1230, "hts</w>": 1231, "enni": 1232, "off": 1233, "wish</w>": 1234, "cure</w>": 1235, "Mexicans</w>": 1236, "Physic": 1237, "right</w>": 1238, "Britain</w>": 1239, "kids</w>": 1240, "real": 1241, "ave</w>": 1242, "ll": 1243, "les</w>": 1244, "tun": 1245, "ite": 1246, "mul": 1247, "City</w>": 1248, "imm": 1249, "Ber": 1250, "Cl": 1251, "obes": 1252, "aths</w>": 1253, "black</w>": 1254, "posi": 1255, "carry</w>": 1256, "Europe</w>": 1257, "personal": 1258, "sleep</w>": 1259, "depends</w>": 1260, "full</w>": 1261, "dollar": 1262, "extraterrestrial</w>": 1263, "member</w>": 1264, "organic</w>": 1265, "liter": 1266, "experim": 1267, "greatest</w>": 1268, "dollars</w>": 1269, "ron": 1270, "up": 1271, "ils</w>": 1272, "Pro": 1273, "inci": 1274, "Your</w>": 1275, "ingd": 1276, "does": 1277, "sYes</w>": 1278, "wint": 1279, "color</w>": 1280, "dered</w>": 1281, "caused</w>": 1282, "Spa": 1283, "Canada": 1284, "port": 1285, "Year</w>": 1286, "animal</w>": 1287, "ments</w>": 1288, "university</w>": 1289, "Chinese</w>": 1290, "salt</w>": 1291, "intelligence</w>": 1292, "give</w>": 1293, "lished</w>": 1294, "again": 1295, "Italians</w>": 1296, "affordable</w>": 1297, "outdoors</w>": 1298, "15</w>": 1299, "cross</w>": 1300, "capita</w>": 1301, "develop": 1302, "current</w>": 1303, "Einste": 1304, "South</w>": 1305, "Boston</w>": 1306, "Trum": 1307, "yourself</w>": 1308, "Canadi": 1309, "obesity</w>": 1310, "doesn</w>": 1311, "against</w>": 1312, "Einstein</w>": 1313, "son</w>": 1314, "eal": 1315, "ris": 1316, "Ob": 1317, "ick</w>": 1318, "Bill</w>": 1319, "ined</w>": 1320, "means</w>": 1321, "abil": 1322, "Food</w>": 1323, "mark": 1324, "evil</w>": 1325, "water": 1326, "attack</w>": 1327, "ancy</w>": 1328, "Paris</w>": 1329, "Very</w>": 1330, "spirits</w>": 1331, "Theore": 1332, "'re</w>": 1333, "increas": 1334, "protect</w>": 1335, "Fundamental</w>": 1336, "multi": 1337, "Kingd": 1338, "Theorem</w>": 1339, "x</w>": 1340, "ey</w>": 1341, "had</w>": 1342, ".,</w>": 1343, "This</w>": 1344, "kers</w>": 1345, "live</w>": 1346, "fol": 1347, "very</w>": 1348, "ly": 1349, "ama</w>": 1350, "shar": 1351, "vo": 1352, "ends</w>": 1353, "imp": 1354, "gone</w>": 1355, "hou": 1356, "allow</w>": 1357, "wear</w>": 1358, "tici": 1359, "saf": 1360, "England": 1361, "hist": 1362, "sibl": 1363, "child</w>": 1364, "cats</w>": 1365, "consume</w>": 1366, "body</w>": 1367, "richest</w>": 1368, "baby</w>": 1369, "police</w>": 1370, "Jews</w>": 1371, "value</w>": 1372, "study</w>": 1373, "cancer</w>": 1374, "business": 1375, "D</w>": 1376, "T</w>": 1377, "bs</w>": 1378, "cer": 1379, "ical</w>": 1380, "beer</w>": 1381, "cli": 1382, "cig": 1383, "lear</w>": 1384, "Hum": 1385, "gar": 1386, "them": 1387, "condi": 1388, "consi": 1389, "doing</w>": 1390, "viol": 1391, "tical</w>": 1392, "rich</w>": 1393, "common</w>": 1394, "speci": 1395, "like": 1396, "fer</w>": 1397, "fav": 1398, "syste": 1399, "wri": 1400, "cous": 1401, "gho": 1402, "side</w>": 1403, "touch</w>": 1404, "India</w>": 1405, "big</w>": 1406, "expec": 1407, "through</w>": 1408, "phenom": 1409, "tball</w>": 1410, "Jewish</w>": 1411, "tune</w>": 1412, "experiments</w>": 1413, "winter</w>": 1414, "Zeal": 1415, "Humans</w>": 1416, "likely</w>": 1417, "phenomen": 1418, "N</w>": 1419, "eth": 1420, "zer": 1421, "Wal": 1422, "erg": 1423, "hal": 1424, ".?</w>": 1425, "Car": 1426, "old": 1427, "abb": 1428, "\".</w>": 1429, "star</w>": 1430, "gun": 1431, "fun": 1432, "work": 1433, "Wor": 1434, "zar": 1435, "mean</w>": 1436, "Den": 1437, "suc": 1438, "seen</w>": 1439, "aller</w>": 1440, "Bl": 1441, "blood</w>": 1442, "dam</w>": 1443, "relig": 1444, "back</w>": 1445, "flu": 1446, "recent</w>": 1447, "invest": 1448, "mach": 1449, "brain": 1450, "Los</w>": 1451, "death</w>": 1452, "single</w>": 1453, "Does</w>": 1454, "brain</w>": 1455, "eyes</w>": 1456, "back": 1457, "charg": 1458, "chick": 1459, "diac</w>": 1460, "Harv": 1461, "personality</w>": 1462, "money</w>": 1463, "religi": 1464, "Tw": 1465, "her": 1466, "ff</w>": 1467, "Red</w>": 1468, "ner</w>": 1469, "ster</w>": 1470, "ach</w>": 1471, "died</w>": 1472, "dig": 1473, "ue": 1474, "ur</w>": 1475, "ign</w>": 1476, "ums</w>": 1477, "ile</w>": 1478, "car</w>": 1479, "sur": 1480, "how</w>": 1481, "maj": 1482, "esYes</w>": 1483, "ome": 1484, "nec": 1485, "cover</w>": 1486, "Sci": 1487, "ought</w>": 1488, "prop": 1489, "anyone</w>": 1490, "laws</w>": 1491, "Phil": 1492, "stars</w>": 1493, "12</w>": 1494, "gets</w>": 1495, "media</w>": 1496, "eating</w>": 1497, "international</w>": 1498, "spend</w>": 1499, "going</w>": 1500, "claims</w>": 1501, "movies</w>": 1502, "literally</w>": 1503, "market</w>": 1504, "Swit": 1505, "half</w>": 1506, "taller</w>": 1507, "Switzer": 1508, "od</w>": 1509, "For": 1510, "Se": 1511, "led</w>": 1512, "ton</w>": 1513, "dat": 1514, "Po": 1515, "tle</w>": 1516, "amed</w>": 1517, "ug": 1518, "open</w>": 1519, "got</w>": 1520, "tar": 1521, "wol": 1522, "ped</w>": 1523, "gl": 1524, "ance</w>": 1525, "ult</w>": 1526, "ads</w>": 1527, "part": 1528, "ment": 1529, "stra": 1530, "oss</w>": 1531, "acks</w>": 1532, "sub": 1533, "grou": 1534, "vig": 1535, "California": 1536, "tend</w>": 1537, "popu": 1538, "white</w>": 1539, "sleep": 1540, "luck": 1541, "sugar</w>": 1542, "ideas</w>": 1543, "tively</w>": 1544, "demonstrated</w>": 1545, "multiple</w>": 1546, "nuc": 1547, "rabb": 1548, "Philad": 1549, "nuclear</w>": 1550, "Philadel": 1551, "Philadelph": 1552, "z</w>": 1553, "ny</w>": 1554, "hi": 1555, "Lu": 1556, "pri": 1557, "ows</w>": 1558, "low": 1559, "cle</w>": 1560, "men": 1561, "being</w>": 1562, "vir": 1563, "del": 1564, "em": 1565, "room": 1566, "When</w>": 1567, "rema": 1568, "medi": 1569, "reas": 1570, "sec": 1571, "stri": 1572, "fore": 1573, "state</w>": 1574, "nothing</w>": 1575, "equ": 1576, "night</w>": 1577, "grow</w>": 1578, "flat": 1579, "must</w>": 1580, "Mexico</w>": 1581, "better</w>": 1582, "mental</w>": 1583, "ception</w>": 1584, "sticks</w>": 1585, "music</w>": 1586, "actor</w>": 1587, "turns</w>": 1588, "vaccines</w>": 1589, "around</w>": 1590, "Muslims</w>": 1591, "medicine</w>": 1592, "lawyers</w>": 1593, "Barack</w>": 1594, "finger</w>": 1595, "Scotland</w>": 1596, "Obama</w>": 1597, "swallow</w>": 1598, "siblings</w>": 1599, "Jenni": 1600, "World</w>": 1601, "cardiac</w>": 1602, "Jennifer</w>": 1603, "West</w>": 1604, "Lo": 1605, "Mon": 1606, "ames</w>": 1607, "sen": 1608, "ene": 1609, "Fe": 1610, "War</w>": 1611, "show</w>": 1612, "ex</w>": 1613, "Tex": 1614, "Ex": 1615, "orci": 1616, "cat": 1617, "asi": 1618, "agic</w>": 1619, "tics</w>": 1620, "tic</w>": 1621, "ants</w>": 1622, "appe": 1623, "turned</w>": 1624, "Arg": 1625, "Cha": 1626, "among</w>": 1627, "Cath": 1628, "ists</w>": 1629, "clud": 1630, "auti": 1631, "income</w>": 1632, "ative</w>": 1633, "enough</w>": 1634, "presid": 1635, "love</w>": 1636, "living</w>": 1637, "ately</w>": 1638, "Gree": 1639, "accep": 1640, "highest</w>": 1641, "showing</w>": 1642, "records</w>": 1643, "purpos": 1644, "Emp": 1645, "Africa</w>": 1646, "existed</w>": 1647, "ettes</w>": 1648, "requir": 1649, "Netherlands</w>": 1650, "Clint": 1651, "machine</w>": 1652, "extend</w>": 1653, "population</w>": 1654, "returns</w>": 1655, "Argenti": 1656, "Cathol": 1657, "Por": 1658, "den": 1659, "San</w>": 1660, "vic": 1661, "ne</w>": 1662, "Is": 1663, "ams</w>": 1664, "onThe</w>": 1665, "ool": 1666, "eld</w>": 1667, "sit</w>": 1668, "she</w>": 1669, "essi": 1670, "Wa": 1671, "words</w>": 1672, "vie": 1673, "tric": 1674, "human": 1675, "add</w>": 1676, "50</w>": 1677, "70</w>": 1678, "buil": 1679, "let": 1680, "ject</w>": 1681, "poss": 1682, "ously</w>": 1683, "aches</w>": 1684, "closer</w>": 1685, "cities</w>": 1686, "state": 1687, "Most</w>": 1688, "100</w>": 1689, "dge</w>": 1690, "future</w>": 1691, "sport</w>": 1692, "frog</w>": 1693, "gum</w>": 1694, "public</w>": 1695, "Rosw": 1696, "established</w>": 1697, "ability</w>": 1698, "impact</w>": 1699, "house</w>": 1700, "ethn": 1701, "succ": 1702, "Twink": 1703, "Switzerland</w>": 1704, "group</w>": 1705, "penny</w>": 1706, "Empire</w>": 1707, "required</w>": 1708, "Roswell</w>": 1709, "ethnic</w>": 1710, "Twinkle</w>": 1711, "P</w>": 1712, "CE": 1713, "We</w>": 1714, "Ac": 1715, "har": 1716, "xes</w>": 1717, "ker</w>": 1718, "star": 1719, "ls</w>": 1720, "sit": 1721, "beat</w>": 1722, "ith</w>": 1723, "ie</w>": 1724, "Dr": 1725, "dent</w>": 1726, "More</w>": 1727, "kin": 1728, "mem": 1729, "med</w>": 1730, "shi": 1731, "tain": 1732, "ction</w>": 1733, "alth": 1734, "decl": 1735, "ide</w>": 1736, "science</w>": 1737, "down</w>": 1738, "verse</w>": 1739, "case</w>": 1740, "wer</w>": 1741, "taking</w>": 1742, "lead</w>": 1743, "nab": 1744, "think</w>": 1745, "tele": 1746, "blue</w>": 1747, "ated": 1748, "sour": 1749, "Lau": 1750, "top</w>": 1751, "original</w>": 1752, "compos": 1753, "Christian</w>": 1754, "descri": 1755, "driving</w>": 1756, "Mass": 1757, "dogs</w>": 1758, "dating</w>": 1759, "break": 1760, "Korean</w>": 1761, "gori": 1762, "foot</w>": 1763, "family</w>": 1764, "Germans</w>": 1765, "objec": 1766, "crime</w>": 1767, "enjo": 1768, "produc": 1769, "decades</w>": 1770, "natur": 1771, "items</w>": 1772, "expect": 1773, "Harvard</w>": 1774, "president</w>": 1775, "purpose</w>": 1776, "expectancy</w>": 1777, "Li": 1778, "hn</w>": 1779, "Her</w>": 1780, "Are": 1781, "ome</w>": 1782, "rest</w>": 1783, "eThe</w>": 1784, "dies</w>": 1785, "den</w>": 1786, "cam": 1787, "comp": 1788, "war</w>": 1789, "shor": 1790, "dog</w>": 1791, "vide": 1792, "tec": 1793, "ually</w>": 1794, "ball": 1795, "20</w>": 1796, "works</w>": 1797, "py": 1798, "phone</w>": 1799, "Ste": 1800, "ples</w>": 1801, "dead</w>": 1802, "three</w>": 1803, "cation</w>": 1804, "51</w>": 1805, "Pau": 1806, "dream</w>": 1807, "humans": 1808, "repres": 1809, "keep</w>": 1810, "sky</w>": 1811, "ight": 1812, "light": 1813, "overty</w>": 1814, "ellow</w>": 1815, "000</w>": 1816, "large</w>": 1817, "today</w>": 1818, "Univers": 1819, "psychic</w>": 1820, "controver": 1821, "effects</w>": 1822, "tely</w>": 1823, "healthiest</w>": 1824, "Latin</w>": 1825, "rights</w>": 1826, "Physics</w>": 1827, "Trump</w>": 1828, "Canadians</w>": 1829, "risk</w>": 1830, "conditions</w>": 1831, "cousin</w>": 1832, "Our</w>": 1833, "Philadelphia</w>": 1834, "Texas</w>": 1835, "school": 1836, "1950</w>": 1837, "nabis</w>": 1838, "Laure": 1839, "enjoy</w>": 1840, "Area</w>": 1841, "ballo": 1842, "Paul</w>": 1843, "University": 1844, "controversi": 1845, "Laureates</w>": 1846, "controversial</w>": 1847, "ond</w>": 1848, "ues</w>": 1849, "ix": 1850, "ble": 1851, "inj": 1852, "yst": 1853, "Air": 1854, "dem": 1855, "raz": 1856, "bul": 1857, "cul": 1858, "im</w>": 1859, "set</w>": 1860, "ose</w>": 1861, "seas": 1862, "nie</w>": 1863, "tast": 1864, "80</w>": 1865, "aff": 1866, "ank</w>": 1867, "spir": 1868, "cy": 1869, "ici": 1870, "tor": 1871, "lish": 1872, "head</w>": 1873, "esting</w>": 1874, "tting</w>": 1875, "Tri": 1876, "cir": 1877, "deral</w>": 1878, "colder</w>": 1879, "Sna": 1880, "ough": 1881, "space</w>": 1882, "Dis": 1883, "past</w>": 1884, "swe": 1885, "station</w>": 1886, "ire": 1887, "Tur": 1888, "invol": 1889, "changed</w>": 1890, "prev": 1891, "arming</w>": 1892, "wait</w>": 1893, "recomm": 1894, "Ge": 1895, "rainfall</w>": 1896, "consumes</w>": 1897, "stu": 1898, "brea": 1899, "ended</w>": 1900, "ier</w>": 1901, "UFOs</w>": 1902, "birth</w>": 1903, "birds</w>": 1904, "didn</w>": 1905, "plastic": 1906, "Norther": 1907, "arch": 1908, "dings</w>": 1909, "off</w>": 1910, "Apple</w>": 1911, "walk</w>": 1912, "gradu": 1913, "billi": 1914, "invented</w>": 1915, "total</w>": 1916, "snow": 1917, "pass</w>": 1918, "acron": 1919, "sharks</w>": 1920, "phenomenon</w>": 1921, "fund</w>": 1922, "2012</w>": 1923, "reason": 1924, "situ": 1925, "although</w>": 1926, "fewer</w>": 1927, "composed</w>": 1928, "describe</w>": 1929, "natural</w>": 1930, "Northern</w>": 1931, "acrony": 1932, "/</w>": 1933, "ran": 1934, "Le": 1935, "ove</w>": 1936, "ling</w>": 1937, "mm": 1938, "uses</w>": 1939, "Col": 1940, "ded</w>": 1941, "opy": 1942, "with": 1943, "Asi": 1944, "math</w>": 1945, "cont": 1946, "wet</w>": 1947, "early</w>": 1948, "seat</w>": 1949, "90</w>": 1950, "wee": 1951, "uction</w>": 1952, "spic": 1953, "coin</w>": 1954, "Kn": 1955, "tox": 1956, "rise</w>": 1957, "country": 1958, "anger": 1959, "line</w>": 1960, "Arti": 1961, "lad": 1962, "countries": 1963, "Anist": 1964, "21</w>": 1965, "poli": 1966, "get": 1967, "wife</w>": 1968, "Prizes</w>": 1969, "created</w>": 1970, "days</w>": 1971, "Inter": 1972, "loves</w>": 1973, "contain</w>": 1974, "intelligen": 1975, "shoes</w>": 1976, "na</w>": 1977, "small</w>": 1978, "sometimes</w>": 1979, "idential</w>": 1980, "physicist</w>": 1981, "evol": 1982, "stitution</w>": 1983, "1960</w>": 1984, "area</w>": 1985, "arriv": 1986, "stock</w>": 1987, "Have</w>": 1988, "swimm": 1989, "portant</w>": 1990, "energ": 1991, "guns</w>": 1992, "chicken</w>": 1993, "ledge</w>": 1994, "algori": 1995, "diseas": 1996, "Georg": 1997, "archit": 1998, "arrivals</w>": 1999, "algorith": 2000, "architec": 2001, "architecture</w>": 2002, "IK": 2003, "ale</w>": 2004, "ut": 2005, "Ag": 2006, "ban</w>": 2007, "We": 2008, "sing</w>": 2009, "gri": 2010, "rop": 2011, "ole</w>": 2012, "own": 2013, "don": 2014, "bee": 2015, "aren</w>": 2016, "ook</w>": 2017, "run": 2018, "sI</w>": 2019, "Coun": 2020, "sters</w>": 2021, "eYou</w>": 2022, "hy": 2023, "pets</w>": 2024, "omic</w>": 2025, "tric</w>": 2026, "ford</w>": 2027, "Many</w>": 2028, "Ness</w>": 2029, "neur": 2030, "rais": 2031, "weed</w>": 2032, "usi": 2033, "tribu": 2034, "tee": 2035, "clothing</w>": 2036, "team</w>": 2037, "que</w>": 2038, "PI": 2039, "SA</w>": 2040, "tors</w>": 2041, "Com": 2042, "lives</w>": 2043, "lands": 2044, "German</w>": 2045, "11</w>": 2046, "pois": 2047, "Prize": 2048, "commentThere</w>": 2049, "Ireland": 2050, "put</w>": 2051, "price</w>": 2052, "wave</w>": 2053, "fri": 2054, "onar": 2055, "Japan": 2056, "power</w>": 2057, "richer</w>": 2058, "bird</w>": 2059, "East</w>": 2060, "physical</w>": 2061, "often</w>": 2062, "monkey</w>": 2063, "comple": 2064, "identify</w>": 2065, "18</w>": 2066, "ociated</w>": 2067, "player</w>": 2068, "Bible</w>": 2069, "Kingdom</w>": 2070, "follow</w>": 2071, "baske": 2072, "Mozar": 2073, "major</w>": 2074, "Scienti": 2075, "opped</w>": 2076, "lower</w>": 2077, "secre": 2078, "Loch</w>": 2079, "orcist</w>": 2080, "CER": 2081, "incident</w>": 2082, "Turkey</w>": 2083, "prevent</w>": 2084, "healthier</w>": 2085, "reasonable</w>": 2086, "teeth</w>": 2087, "basketball</w>": 2088, "Scientists</w>": 2089, "CERN</w>": 2090, "HH": 2091, "ari": 2092, "answ": 2093, "omin": 2094, "Mil": 2095, "test</w>": 2096, "ater</w>": 2097, "care</w>": 2098, "ara": 2099, "Co": 2100, "tal": 2101, "indi": 2102, "Ever": 2103, "ual</w>": 2104, "worl": 2105, "Bu": 2106, "lon": 2107, "imag": 2108, "meas": 2109, "perf": 2110, "legal": 2111, "gin": 2112, "earth": 2113, "ness</w>": 2114, "fal": 2115, "ia": 2116, "app": 2117, "Sing": 2118, "unic": 2119, "ried</w>": 2120, "tch</w>": 2121, "sup": 2122, "read</w>": 2123, "itting</w>": 2124, "link</w>": 2125, "sts": 2126, "moder": 2127, "ram": 2128, "Gates</w>": 2129, "poor</w>": 2130, "watch</w>": 2131, "step</w>": 2132, "terna": 2133, "direc": 2134, "actu": 2135, "pper</w>": 2136, "hand": 2137, "ambig": 2138, "films</w>": 2139, "sales": 2140, "kill": 2141, "ge": 2142, "lying</w>": 2143, "perman": 2144, "selves</w>": 2145, "chae": 2146, "Europeans</w>": 2147, "became</w>": 2148, "also</w>": 2149, "exist</w>": 2150, "signed</w>": 2151, "help</w>": 2152, "foods</w>": 2153, "aircra": 2154, "institu": 2155, "burg": 2156, "election</w>": 2157, "cooked</w>": 2158, "Death</w>": 2159, "ina</w>": 2160, "Spain": 2161, "safe</w>": 2162, "ribs</w>": 2163, "cigar</w>": 2164, "system</w>": 2165, "Zealand": 2166, "Walt</w>": 2167, "Adam</w>": 2168, "Que": 2169, "while</w>": 2170, "proper": 2171, "God</w>": 2172, "named</w>": 2173, "sleepwal": 2174, "appear</w>": 2175, "usually</w>": 2176, "Apples</w>": 2177, "poverty</w>": 2178, "demic</w>": 2179, "English": 2180, "Disney</w>": 2181, "without</w>": 2182, "danger": 2183, "ladder</w>": 2184, "Argentina</w>": 2185, "unique</w>": 2186, "world": 2187, "earthwor": 2188, "Singap": 2189, "ternative</w>": 2190, "ambigu": 2191, "aircraft</w>": 2192, "R</w>": 2193, "BM": 2194, "dou": 2195, "ain</w>": 2196, "ring</w>": 2197, "Dre": 2198, "NA": 2199, "yThe</w>": 2200, "gan</w>": 2201, "lies</w>": 2202, "tly</w>": 2203, "Bur": 2204, "then</w>": 2205, "mer</w>": 2206, "mel": 2207, "esThe</w>": 2208, "Vir": 2209, "no": 2210, "isi": 2211, "onds</w>": 2212, "compar": 2213, "Di": 2214, "tically</w>": 2215, "happ": 2216, "Sp": 2217, "arres": 2218, "Swe": 2219, "tech": 2220, "lor": 2221, "imal": 2222, "phra": 2223, "feet</w>": 2224, "Stre": 2225, "State</w>": 2226, "angle</w>": 2227, "wine</w>": 2228, "NoNo</w>": 2229, "lated</w>": 2230, "smar": 2231, "mind</w>": 2232, "yNo</w>": 2233, "disor": 2234, "disc": 2235, "eni": 2236, "fast</w>": 2237, "examp": 2238, "trait</w>": 2239, "Mexico": 2240, "Span": 2241, "closest</w>": 2242, "anti": 2243, "gla": 2244, "cial</w>": 2245, "cut</w>": 2246, "cuis": 2247, "net": 2248, "great</w>": 2249, "proved</w>": 2250, "ption</w>": 2251, "Sali": 2252, "ically</w>": 2253, "Latin": 2254, "sible</w>": 2255, "sure</w>": 2256, "tron": 2257, "European</w>": 2258, "attack": 2259, "probab": 2260, "report</w>": 2261, "Jolie</w>": 2262, "contro": 2263, "helic": 2264, "Roman</w>": 2265, "cookies</w>": 2266, "known": 2267, "capes</w>": 2268, "vision</w>": 2269, "thinking</w>": 2270, "languages</w>": 2271, "found": 2272, "Berm": 2273, "paths</w>": 2274, "Spain</w>": 2275, "history</w>": 2276, "businessman</w>": 2277, "critical</w>": 2278, "brained</w>": 2279, "religion</w>": 2280, "bums</w>": 2281, "Lux": 2282, "foreign</w>": 2283, "James</w>": 2284, "catch</w>": 2285, "Magic</w>": 2286, "includ": 2287, "feld</w>": 2288, "declined</w>": 2289, "objectively</w>": 2290, "Libr": 2291, "camel</w>": 2292, "1980</w>": 2293, "week": 2294, "struction</w>": 2295, "Aniston</w>": 2296, "important</w>": 2297, "missing</w>": 2298, "dropped</w>": 2299, "answer</w>": 2300, "Everyone</w>": 2301, "pyram": 2302, "permanently</w>": 2303, "institutions</w>": 2304, "Angelina</w>": 2305, "pandemic</w>": 2306, "compared</w>": 2307, "phrase</w>": 2308, "example</w>": 2309, "Salier": 2310, "tronics</w>": 2311, "control</w>": 2312, "Bermud": 2313, "Luxe": 2314, "Libras</w>": 2315, "Salieri</w>": 2316, "Bermuda</w>": 2317, "Luxemb": 2318, "Luxembour": 2319, "C</w>": 2320, "K</w>": 2321, "He</w>": 2322, "On</w>": 2323, "bal": 2324, "swor": 2325, "han": 2326, "Eve</w>": 2327, "Mac": 2328, "gas</w>": 2329, "Or": 2330, "kill</w>": 2331, "hun": 2332, "deb": 2333, "ck</w>": 2334, "def": 2335, "sive</w>": 2336, "lam": 2337, "stat": 2338, "fru": 2339, "ens": 2340, "Ri": 2341, "ching</w>": 2342, "stay</w>": 2343, "impro": 2344, "ie": 2345, "aper</w>": 2346, "weap": 2347, "ulate</w>": 2348, "drag": 2349, "way": 2350, "life": 2351, "but": 2352, "carp</w>": 2353, "ingThe</w>": 2354, "Hen": 2355, "lawed</w>": 2356, "book</w>": 2357, "famil": 2358, "drow": 2359, "lected</w>": 2360, "ouses</w>": 2361, "gray</w>": 2362, "grav": 2363, "His": 2364, "Swi": 2365, "Christian": 2366, "Mir": 2367, "infla": 2368, "eats</w>": 2369, "hos": 2370, "trying</w>": 2371, "powers</w>": 2372, "deep": 2373, "singing</w>": 2374, "Elv": 2375, "effect</w>": 2376, "chase</w>": 2377, "crashed</w>": 2378, "Italian</w>": 2379, "struck</w>": 2380, "North</w>": 2381, "ub</w>": 2382, "atte": 2383, "absol": 2384, "diabet": 2385, "Rome</w>": 2386, "swims</w>": 2387, "underne": 2388, "lawyer</w>": 2389, "establish</w>": 2390, "kid": 2391, "drinking</w>": 2392, "language": 2393, "LS": 2394, "snowing</w>": 2395, "umbre": 2396, "position</w>": 2397, "positive</w>": 2398, "trails</w>": 2399, "development</w>": 2400, "waterfall</w>": 2401, "histor": 2402, "Denver</w>": 2403, "YesYes</w>": 2404, "Seatt": 2405, "subjec": 2406, "rabbit</w>": 2407, "remains</w>": 2408, "bene": 2409, "easi": 2410, "object</w>": 2411, "affordability</w>": 2412, "GD": 2413, "Fac": 2414, "company</w>": 2415, "Yellow</w>": 2416, "bey": 2417, "cryst": 2418, "affect</w>": 2419, "spank</w>": 2420, "copy": 2421, "contact</w>": 2422, "beef</w>": 2423, "Ox": 2424, "completely</w>": 2425, "associated</w>": 2426, "false</w>": 2427, "actually</w>": 2428, "pepper</w>": 2429, "themselves</w>": 2430, "alternative</w>": 2431, "began</w>": 2432, "Virgin": 2433, "arrested</w>": 2434, "Himal": 2435, "Triangle</w>": 2436, "probably</w>": 2437, "television</w>": 2438, "albums</w>": 2439, "construction</w>": 2440, "pyramids</w>": 2441, "fruit</w>": 2442, "Henry</w>": 2443, "drowning</w>": 2444, "Hispan": 2445, "hospit": 2446, "Elvis</w>": 2447, "attemp": 2448, "absolu": 2449, "underneath</w>": 2450, "umbrell": 2451, "GDP</w>": 2452, "beyond</w>": 2453, "Oxford</w>": 2454, "Himalay": 2455, "umbrella</w>": 2456, "Himalayan</w>": 2457, "MS": 2458, "7</w>": 2459, "ys</w>": 2460, "ut</w>": 2461, "tie</w>": 2462, "Man": 2463, "ong": 2464, "ked</w>": 2465, "Ric": 2466, "ju": 2467, "non</w>": 2468, "King</w>": 2469, "orm": 2470, "row": 2471, "bit": 2472, "dar": 2473, "fer": 2474, "list": 2475, "dly</w>": 2476, "aur": 2477, "try</w>": 2478, "Fir": 2479, "Will</w>": 2480, "hit</w>": 2481, "ung</w>": 2482, "mag": 2483, "dIf</w>": 2484, "perc": 2485, "ality</w>": 2486, "ation": 2487, "alive</w>": 2488, "cow": 2489, "see": 2490, "ana</w>": 2491, "tation</w>": 2492, "new</w>": 2493, "spac": 2494, "clou": 2495, "pho": 2496, "alco": 2497, "yYes</w>": 2498, "repl": 2499, "bumb": 2500, "stre": 2501, "fight</w>": 2502, "vel</w>": 2503, "vement</w>": 2504, "confir": 2505, "hol": 2506, "humid</w>": 2507, "reser": 2508, "Franci": 2509, "colors</w>": 2510, "int</w>": 2511, "amm": 2512, "di</w>": 2513, "flun": 2514, "loc": 2515, "says</w>": 2516, "ette</w>": 2517, "commentI</w>": 2518, "compu": 2519, "Australia": 2520, "ances</w>": 2521, "lived</w>": 2522, "Euros</w>": 2523, "Sch": 2524, "plane</w>": 2525, "provi": 2526, "Real</w>": 2527, "ber": 2528, "sus": 2529, "erson</w>": 2530, "least</w>": 2531, "vampire</w>": 2532, "defin": 2533, "indoors</w>": 2534, "Hog": 2535, "vaccin": 2536, "Joy": 2537, "think": 2538, "power": 2539, "effective</w>": 2540, "food": 2541, "solar</w>": 2542, "spind": 2543, "feel</w>": 2544, "frogs</w>": 2545, "ither</w>": 2546, "Germany": 2547, "ority</w>": 2548, "places</w>": 2549, "incomes</w>": 2550, "decades": 2551, "ights</w>": 2552, "offic": 2553, "Physics": 2554, "Beat": 2555, "remember</w>": 2556, "powdered</w>": 2557, "prick</w>": 2558, "Kingdom": 2559, "avo": 2560, "pes": 2561, "businesses</w>": 2562, "SA": 2563, "cere": 2564, "clim": 2565, "writ": 2566, "ghosts</w>": 2567, "faster</w>": 2568, "Some": 2569, "connec": 2570, "navig": 2571, "conception</w>": 2572, "chop": 2573, "diabe": 2574, "autis": 2575, "Greek</w>": 2576, "dreams</w>": 2577, "1970</w>": 2578, "With</w>": 2579, "diverse</w>": 2580, "short</w>": 2581, "location</w>": 2582, "cannabis</w>": 2583, "balloons</w>": 2584, "recordings</w>": 2585, "owling</w>": 2586, "1990</w>": 2587, "Artists</w>": 2588, "presidential</w>": 2589, "George</w>": 2590, "Pil": 2591, "concl": 2592, "Buil": 2593, "longer</w>": 2594, "perfect</w>": 2595, "directed</w>": 2596, "sleepwalker</w>": 2597, "Singapore</w>": 2598, "vertically</w>": 2599, "glass</w>": 2600, "helicop": 2601, "Biele": 2602, "paper</w>": 2603, "diabetes</w>": 2604, "MSG": 2605, "listen": 2606, "First</w>": 2607, "replic": 2608, "bumble": 2609, "located</w>": 2610, "Hogwar": 2611, "powerful</w>": 2612, "spindle</w>": 2613, "Beatles</w>": 2614, "pestici": 2615, "climate</w>": 2616, "written</w>": 2617, "navigable</w>": 2618, "chopsticks</w>": 2619, "diabetics</w>": 2620, "autism</w>": 2621, "Pilgri": 2622, "conclusi": 2623, "helicopters</w>": 2624, "Bielefeld</w>": 2625, "MSG</w>": 2626, "bumblebe": 2627, "Pilgrims</w>": 2628, "bumblebees</w>": 2629, "B</w>": 2630, "J</w>": 2631, "My</w>": 2632, "thre": 2633, "Av": 2634, "open": 2635, "cle": 2636, "ole": 2637, "So": 2638, "iti": 2639, "pot</w>": 2640, "Hol": 2641, "cel": 2642, "vil": 2643, "Jon": 2644, "thers</w>": 2645, "dom": 2646, "mic": 2647, "Iri": 2648, "ss": 2649, "fur": 2650, "fra": 2651, "siz": 2652, "sion</w>": 2653, "doc": 2654, "oodo": 2655, "AD": 2656, "ingYou</w>": 2657, "ards</w>": 2658, "'m</w>": 2659, "Tim": 2660, "ash</w>": 2661, "infor": 2662, "legally</w>": 2663, "Hoo": 2664, "pay</w>": 2665, "tries</w>": 2666, "resp": 2667, "Cap": 2668, "mat": 2669, "suff": 2670, "elsh</w>": 2671, "sma": 2672, "Mid": 2673, "Star</w>": 2674, "lege</w>": 2675, "states</w>": 2676, "high": 2677, "due</w>": 2678, "every": 2679, "Dog": 2680, "ince": 2681, "nings</w>": 2682, "Brits</w>": 2683, "kind</w>": 2684, "brown</w>": 2685, "mation</w>": 2686, "both</w>": 2687, "Bel": 2688, "wro": 2689, "Indi": 2690, "ego</w>": 2691, "away</w>": 2692, "futu": 2693, "raining</w>": 2694, "ston": 2695, "flag": 2696, "Australians</w>": 2697, "panies</w>": 2698, "Musk": 2699, "Musk</w>": 2700, "chili</w>": 2701, "32</w>": 2702, "playing</w>": 2703, "afford</w>": 2704, "host</w>": 2705, "Great</w>": 2706, "Green</w>": 2707, "planets</w>": 2708, "dess": 2709, "touri": 2710, "right": 2711, "milder</w>": 2712, "rub</w>": 2713, "City": 2714, "harm": 2715, "India": 2716, "Korea</w>": 2717, "tops</w>": 2718, "cops</w>": 2719, "stops</w>": 2720, "medical</w>": 2721, "foil</w>": 2722, "bare": 2723, "placed</w>": 2724, "Gra": 2725, "fish</w>": 2726, "personally</w>": 2727, "She</w>": 2728, "reflec": 2729, "soci": 2730, "visiting</w>": 2731, "fetal</w>": 2732, "public": 2733, "princi": 2734, "speakers</w>": 2735, "partici": 2736, "beth</w>": 2737, "certain</w>": 2738, "cigar": 2739, "Bul": 2740, "ders</w>": 2741, "violent</w>": 2742, "special</w>": 2743, "write</w>": 2744, "Zealand</w>": 2745, "investor</w>": 2746, "Lit": 2747, "Nic": 2748, "glob": 2749, "toads</w>": 2750, "uss</w>": 2751, "loss</w>": 2752, "Austri": 2753, "Chain": 2754, "accept</w>": 2755, "Lavig": 2756, "restric": 2757, "letter</w>": 2758, "Accor": 2759, "started</w>": 2760, "dolls</w>": 2761, "Drag": 2762, "memory</w>": 2763, "ships</w>": 2764, "Massac": 2765, "Some</w>": 2766, "lightning</w>": 2767, "claim</w>": 2768, "setting</w>": 2769, "Snake</w>": 2770, "breast": 2771, "undergradu": 2772, "ranking</w>": 2773, "above</w>": 2774, "backseat</w>": 2775, "spiciest</w>": 2776, "evolved</w>": 2777, "knowledge</w>": 2778, "Agend": 2779, "Weed</w>": 2780, "down": 2781, "poison": 2782, "secret</w>": 2783, "vidu": 2784, "illegal": 2785, "support</w>": 2786, "salesmen</w>": 2787, "chaeolog": 2788, "dangerous</w>": 2789, "earthworm</w>": 2790, "techn": 2791, "Latinos</w>": 2792, "Luxembourg</w>": 2793, "sword</w>": 2794, "lamp</w>": 2795, "River</w>": 2796, "touching</w>": 2797, "outlawed</w>": 2798, "crystals</w>": 2799, "Richard</w>": 2800, "confirmed</w>": 2801, "reserves</w>": 2802, "Joyce</w>": 2803, "either</w>": 2804, "Bowling</w>": 2805, "Avri": 2806, "oodoo</w>": 2807, "Time</w>": 2808, "smash</w>": 2809, "Midd": 2810, "wrote</w>": 2811, "future": 2812, "principle</w>": 2813, "Bulgar": 2814, "Little</w>": 2815, "global</w>": 2816, "Chainsa": 2817, "restrictions</w>": 2818, "According</w>": 2819, "breastfe": 2820, "undergraduate</w>": 2821, "Agenda</w>": 2822, "chaeologists</w>": 2823, "Avril</w>": 2824, "Middle</w>": 2825, "Bulgaria</w>": 2826, "Chainsaw</w>": 2827, "inc": 2828, "Tes": 2829, "eres": 2830, "ala</w>": 2831, "Pu": 2832, "band</w>": 2833, "Pop": 2834, "let</w>": 2835, "dam": 2836, "leThe</w>": 2837, "sum": 2838, "Ul": 2839, "che": 2840, "ame": 2841, "shot</w>": 2842, "esNo</w>": 2843, "age": 2844, "ken</w>": 2845, "esYou</w>": 2846, "sYou</w>": 2847, "ounds</w>": 2848, "pm</w>": 2849, "pal": 2850, "meal</w>": 2851, "sIf</w>": 2852, "ased</w>": 2853, "Dec": 2854, "ID": 2855, "America": 2856, "tThe</w>": 2857, "thme": 2858, "Way</w>": 2859, "exer": 2860, "commit</w>": 2861, "insom": 2862, "Econ": 2863, "ger": 2864, "stin": 2865, "inks</w>": 2866, "resul": 2867, "wea": 2868, "stric": 2869, "dThe</w>": 2870, "extin": 2871, "timate</w>": 2872, "cost</w>": 2873, "gn": 2874, "tem": 2875, "ales</w>": 2876, "fear</w>": 2877, "Arab": 2878, "guar": 2879, "Rh": 2880, "nine</w>": 2881, "Hong</w>": 2882, "ement</w>": 2883, "cell</w>": 2884, "mur": 2885, "sAll</w>": 2886, "19</w>": 2887, "save</w>": 2888, "sail": 2889, "paw</w>": 2890, "originated</w>": 2891, "mor": 2892, "China": 2893, "mass</w>": 2894, "armor</w>": 2895, "artist</w>": 2896, "wake</w>": 2897, "Ve": 2898, "consumed</w>": 2899, "bears</w>": 2900, "clas": 2901, "German": 2902, "lines</w>": 2903, "two</w>": 2904, "fits</w>": 2905, "plants</w>": 2906, "abund": 2907, "ondes</w>": 2908, "tor</w>": 2909, "Cre": 2910, "crav": 2911, "Return</w>": 2912, "mele": 2913, "eyn": 2914, "cooking</w>": 2915, "smoking</w>": 2916, "salary</w>": 2917, "urb</w>": 2918, "actors</w>": 2919, "poly": 2920, "spent</w>": 2921, "Bull</w>": 2922, "score</w>": 2923, "tom": 2924, "flight</w>": 2925, "Arm": 2926, "Neil</w>": 2927, "burn</w>": 2928, "inform</w>": 2929, "psychop": 2930, "Bem</w>": 2931, "element</w>": 2932, "finish</w>": 2933, "personal</w>": 2934, "Mill": 2935, "Pow": 2936, "developed</w>": 2937, "Trump": 2938, "pick</w>": 2939, "favor": 2940, "football</w>": 2941, "Lind": 2942, "Mc": 2943, "Black</w>": 2944, "Amster": 2945, "digit</w>": 2946, "necess": 2947, "anda</w>": 2948, "wolf</w>": 2949, "glu": 2950, "partame</w>": 2951, "luckIf</w>": 2952, "rabbits</w>": 2953, "mention</w>": 2954, "model": 2955, "rooms</w>": 2956, "unequ": 2957, "mid": 2958, "roomsticks</w>": 2959, "sex</w>": 2960, "creative</w>": 2961, "accepted</w>": 2962, "brun": 2963, "Clinton": 2964, "prof": 2965, "view": 2966, "possess</w>": 2967, "statements</w>": 2968, "success</w>": 2969, "success": 2970, "harder</w>": 2971, "pie</w>": 2972, "contain": 2973, "hide</w>": 2974, "John</w>": 2975, "arrest</w>": 2976, "bodies</w>": 2977, "represent</w>": 2978, "injas</w>": 2979, "Bernie</w>": 2980, "taste</w>": 2981, "federal</w>": 2982, "recommended</w>": 2983, "plasticity</w>": 2984, "situations</w>": 2985, "acronym</w>": 2986, "energy</w>": 2987, "sisters</w>": 2988, "atomic</w>": 2989, "neurons</w>": 2990, "Mozart</w>": 2991, "vari": 2992, "Milk": 2993, "imagine</w>": 2994, "measure</w>": 2995, "ghosts": 2996, "handsome</w>": 2997, "double</w>": 2998, "Flor": 2999, "Street</w>": 3000, "related</w>": 3001, "possible</w>": 3002, "debt</w>": 3003, "achie": 3004, "aculate</w>": 3005, "family": 3006, "selected</w>": 3007, "houses</w>": 3008, "gravity</w>": 3009, "deepest</w>": 3010, "LSD</w>": 3011, "Hispanics</w>": 3012, "dark</w>": 3013, "planch": 3014, "Person</w>": 3015, "SAT</w>": 3016, "cereal</w>": 3017, "threat": 3018, "further</w>": 3019, "wash</w>": 3020, "information</w>": 3021, "companies</w>": 3022, "2032</w>": 3023, "Grapes</w>": 3024, "Macbeth</w>": 3025, "discuss</w>": 3026, "Lavigne</w>": 3027, "individu": 3028, "breastfeed": 3029, "Tesl": 3030, "eresa</w>": 3031, "palm</w>": 3032, "exerci": 3033, "insomni": 3034, "Econom": 3035, "results</w>": 3036, "Rhine</w>": 3037, "abundant</w>": 3038, "Creery</w>": 3039, "cravings</w>": 3040, "Armstrong</w>": 3041, "Powdered</w>": 3042, "favorite</w>": 3043, "gluten</w>": 3044, "professi": 3045, "viewed</w>": 3046, "containing</w>": 3047, "Milky</w>": 3048, "Florid": 3049, "planchette</w>": 3050, "insomnia</w>": 3051, "3</w>": 3052, "mou": 3053, "rh": 3054, "oy": 3055, "ser": 3056, "For</w>": 3057, "using</w>": 3058, "die": 3059, "ouri": 3060, "list</w>": 3061, "Ba": 3062, "attr": 3063, "Bir": 3064, "gir": 3065, "sla": 3066, "share</w>": 3067, "cast</w>": 3068, "AF": 3069, "VI": 3070, "once</w>": 3071, "ulc": 3072, "ins": 3073, "ingYes</w>": 3074, "lea": 3075, "ask</w>": 3076, "Ari": 3077, "sIt</w>": 3078, "force</w>": 3079, "lead": 3080, "mit</w>": 3081, "Day</w>": 3082, "near</w>": 3083, "isn</w>": 3084, "ooks</w>": 3085, "dru": 3086, "cage</w>": 3087, "urch</w>": 3088, "suit</w>": 3089, "Sy": 3090, "tea</w>": 3091, "maid": 3092, "seaf": 3093, "pay": 3094, "ense</w>": 3095, "pt</w>": 3096, "Stor": 3097, "angol": 3098, "commonly</w>": 3099, "scientist</w>": 3100, "acti": 3101, "height</w>": 3102, "aid</w>": 3103, "mum": 3104, "rates</w>": 3105, "Mic": 3106, "deter": 3107, "consci": 3108, "adors</w>": 3109, "edThe</w>": 3110, "gran": 3111, "particle</w>": 3112, "landing</w>": 3113, "auth": 3114, "auto": 3115, "stea": 3116, "compe": 3117, "learned</w>": 3118, "even</w>": 3119, "defam": 3120, "tures</w>": 3121, "commentThe</w>": 3122, "commentIt</w>": 3123, "Eg": 3124, "meant</w>": 3125, "edu": 3126, "pants</w>": 3127, "rains</w>": 3128, "horn</w>": 3129, "fac": 3130, "univer": 3131, "Uru": 3132, "rescu": 3133, "arma</w>": 3134, "hears</w>": 3135, "Union</w>": 3136, "rats</w>": 3137, "trains</w>": 3138, "modi": 3139, "Des": 3140, "shines</w>": 3141, "cup": 3142, "made</w>": 3143, "woman</w>": 3144, "excep": 3145, "White</w>": 3146, "goes</w>": 3147, "pluck</w>": 3148, "Indepen": 3149, "Norway</w>": 3150, "round</w>": 3151, "extraterrestrial": 3152, "quick": 3153, "Muslim": 3154, "desert</w>": 3155, "hens</w>": 3156, "deple": 3157, "treuse</w>": 3158, "vac": 3159, "crimin": 3160, "Deep": 3161, "corru": 3162, "reduc": 3163, "Angeles</w>": 3164, "lling</w>": 3165, "increase</w>": 3166, "increased</w>": 3167, "foll": 3168, "za": 3169, "wizar": 3170, "omit": 3171, "Chile</w>": 3172, "Fortune</w>": 3173, "ont": 3174, "dist": 3175, "cracks</w>": 3176, "Shi": 3177, "bows</w>": 3178, "chem": 3179, "median</w>": 3180, "phants</w>": 3181, "Clinton</w>": 3182, "Catholic</w>": 3183, "Islands</w>": 3184, "built</w>": 3185, "unanim": 3186, "peaches</w>": 3187, "sources</w>": 3188, "produces</w>": 3189, "Nix": 3190, "proble": 3191, "razor</w>": 3192, "Anti": 3193, "delici": 3194, "circle</w>": 3195, "sweets</w>": 3196, "involve</w>": 3197, "billion</w>": 3198, "intelligences</w>": 3199, "swimming</w>": 3200, "disease</w>": 3201, "took</w>": 3202, "contribu": 3203, "friends</w>": 3204, "onaries</w>": 3205, "Exorcist</w>": 3206, "theater</w>": 3207, "healthcare</w>": 3208, "Coast</w>": 3209, "unicor": 3210, "Queen</w>": 3211, "ambiguous</w>": 3212, "watermel": 3213, "happiest</w>": 3214, "perspir": 3215, "cuisine</w>": 3216, "Unknown": 3217, "founded</w>": 3218, "statues</w>": 3219, "kidn": 3220, "easiest</w>": 3221, "copyright</w>": 3222, "single": 3223, "quality</w>": 3224, "cowor": 3225, "stretch</w>": 3226, "travel</w>": 3227, "Jedi</w>": 3228, "official</w>": 3229, "avoid": 3230, "connected</w>": 3231, "Building</w>": 3232, "listening</w>": 3233, "Nap": 3234, "Jonest": 3235, "Dogs</w>": 3236, "dessert</w>": 3237, "harmful</w>": 3238, "reflection</w>": 3239, "Dragon</w>": 3240, "acknowledge</w>": 3241, "Mal": 3242, "Puff</w>": 3243, "Pope</w>": 3244, "ADID": 3245, "distin": 3246, "drinks</w>": 3247, "strich": 3248, "scales</w>": 3249, "infr": 3250, "murder</w>": 3251, "sailor</w>": 3252, "classic": 3253, "benefits</w>": 3254, "meleons</w>": 3255, "Feyn": 3256, "Miranda</w>": 3257, "mush": 3258, "brunettes</w>": 3259, "magpie</w>": 3260, "threaten": 3261, "breastfeeding</w>": 3262, "Tesla</w>": 3263, "rhin": 3264, "AFI</w>": 3265, "Storm</w>": 3266, "angolin</w>": 3267, "defamation</w>": 3268, "Egyp": 3269, "Urugu": 3270, "except</w>": 3271, "Independence</w>": 3272, "DeepM": 3273, "wizards</w>": 3274, "unanimously</w>": 3275, "Nixon</w>": 3276, "delicious</w>": 3277, "unicorns</w>": 3278, "singlehan": 3279, "Napole": 3280, "Jonestown</w>": 3281, "ADIDA": 3282, "striches</w>": 3283, "infring": 3284, "classical</w>": 3285, "Feynman</w>": 3286, "mushrooms</w>": 3287, "rhino</w>": 3288, "DeepMind</w>": 3289, "singlehande": 3290, "Napoleon</w>": 3291, "ADIDAS</w>": 3292, "infringement</w>": 3293, "singlehandedly</w>": 3294, "E</w>": 3295, "An</w>": 3296, "tis</w>": 3297, "Pal": 3298, "bon": 3299, "fan</w>": 3300, "Ted</w>": 3301, "bed</w>": 3302, "so": 3303, "san": 3304, "wil": 3305, "my": 3306, "Dri": 3307, "sty": 3308, "Men</w>": 3309, "eng": 3310, "Now": 3311, "fig": 3312, "Was</w>": 3313, "Cam": 3314, "coma</w>": 3315, "coming</w>": 3316, "ish": 3317, "use": 3318, "rein": 3319, "bans</w>": 3320, "ati": 3321, "ingNo</w>": 3322, "stan": 3323, "far": 3324, "mean": 3325, "Ra": 3326, "itIf</w>": 3327, "yIf</w>": 3328, "lets</w>": 3329, "diet</w>": 3330, "EU": 3331, "hor": 3332, "fame</w>": 3333, "ose": 3334, "road": 3335, "reg": 3336, "Air</w>": 3337, "stood</w>": 3338, "40</w>": 3339, "ago": 3340, "tran": 3341, "Fin": 3342, "cloth": 3343, "igned</w>": 3344, "day": 3345, "head": 3346, "ton": 3347, "making</w>": 3348, "road</w>": 3349, "conf": 3350, "ange</w>": 3351, "colon": 3352, "Mi": 3353, "weight</w>": 3354, "hid</w>": 3355, "card</w>": 3356, "care": 3357, "ores</w>": 3358, "one": 3359, "lin</w>": 3360, "sna": 3361, "ror": 3362, "super": 3363, "peace</w>": 3364, "landed</w>": 3365, "log": 3366, "Kid": 3367, "beings</w>": 3368, "arms</w>": 3369, "table</w>": 3370, "beh": 3371, "gh</w>": 3372, "cry</w>": 3373, "drop</w>": 3374, "dream": 3375, "ock": 3376, "rela": 3377, "uter": 3378, "trans": 3379, "York": 3380, "trust</w>": 3381, "consen": 3382, "acter": 3383, "casu": 3384, "univers": 3385, "lift</w>": 3386, "ories</w>": 3387, "Nove": 3388, "pill": 3389, "Gand": 3390, "Eman": 3391, "nal</w>": 3392, "Gold</w>": 3393, "pass": 3394, "essed</w>": 3395, "Russia": 3396, "ley": 3397, "ongs</w>": 3398, "skin</w>": 3399, "luck</w>": 3400, "snow</w>": 3401, "Sug": 3402, "record</w>": 3403, "alien": 3404, "vaccine</w>": 3405, "Bak": 3406, "five</w>": 3407, "defi": 3408, "god": 3409, "signi": 3410, "across</w>": 3411, "members</w>": 3412, "African</w>": 3413, "develop</w>": 3414, "Mark</w>": 3415, "USThe</w>": 3416, "cancer": 3417, "FranceThe</w>": 3418, "illiant</w>": 3419, "grapes</w>": 3420, "attor": 3421, "miser": 3422, "personali": 3423, "friv": 3424, "finger": 3425, "genes</w>": 3426, "psychology</w>": 3427, "24</w>": 3428, "1966</w>": 3429, "organiz": 3430, "passpor": 3431, "deaths</w>": 3432, "Procl": 3433, "2015</w>": 3434, "uel": 3435, "joined</w>": 3436, "ities</w>": 3437, "Yorkers</w>": 3438, "vote</w>": 3439, "Parents</w>": 3440, "AD</w>": 3441, "consist": 3442, "berg": 3443, "Denmar": 3444, "backwar": 3445, "charges</w>": 3446, "hero": 3447, "diges": 3448, "Science</w>": 3449, "thought</w>": 3450, "brought</w>": 3451, "predat": 3452, "caug": 3453, "tarot</w>": 3454, "attend": 3455, "result</w>": 3456, "partner</w>": 3457, "straw</w>": 3458, "Cru": 3459, "remain</w>": 3460, "foreig": 3461, "reactor</w>": 3462, "senses</w>": 3463, "Rex</w>": 3464, "tois": 3465, "Sm": 3466, "kinder": 3467, "Britain": 3468, "Massach": 3469, "Pur": 3470, "ahn</w>": 3471, "video</w>": 3472, "Pr": 3473, "Airport</w>": 3474, "Braz": 3475, "Cal": 3476, "cultur": 3477, "nose</w>": 3478, "cycl": 3479, "ingesting</w>": 3480, "interesting</w>": 3481, "warming</w>": 3482, "farming</w>": 3483, "studied</w>": 3484, "snowfall</w>": 3485, "lemm": 3486, "airline</w>": 3487, "Prostitution</w>": 3488, "algorithms</w>": 3489, "WIK": 3490, "male</w>": 3491, "urban</w>": 3492, "years": 3493, "carpets</w>": 3494, "metric</w>": 3495, "raised</w>": 3496, "PIN</w>": 3497, "Netherlands": 3498, "hol</w>": 3499, "married</w>": 3500, "kills</w>": 3501, "burgers</w>": 3502, "again</w>": 3503, "NASA</w>": 3504, "Lou": 3505, "amonds</w>": 3506, "Space</w>": 3507, "smarter</w>": 3508, "breakfast</w>": 3509, "Spanish</w>": 3510, "typically</w>": 3511, "including</w>": 3512, "hunt</w>": 3513, "dragons</w>": 3514, "historic</w>": 3515, "hospital</w>": 3516, "attempt</w>": 3517, "juice</w>": 3518, "ormal</w>": 3519, "lung</w>": 3520, "cloudy</w>": 3521, "photo": 3522, "computers</w>": 3523, "suspec": 3524, "majority</w>": 3525, "pesticides</w>": 3526, "conclusive": 3527, "microw": 3528, "fraud": 3529, "size</w>": 3530, "Welsh</w>": 3531, "oldfish</w>": 3532, "particip": 3533, "Nicole</w>": 3534, "Voodoo</w>": 3535, "Archaeologists</w>": 3536, "weaving</w>": 3537, "ultimate</w>": 3538, "pregn": 3539, "Millenni": 3540, "McCar": 3541, "Amsterdam</w>": 3542, "midnight</w>": 3543, "favouri": 3544, "Arithme": 3545, "admit</w>": 3546, "lawsuit</w>": 3547, "maidens</w>": 3548, "seafood</w>": 3549, "mummy</w>": 3550, "author</w>": 3551, "lectures</w>": 3552, "modify</w>": 3553, "cupines</w>": 3554, "vacations</w>": 3555, "compelling</w>": 3556, "Yousaf": 3557, "omitori": 3558, "watermelon</w>": 3559, "kidnapp": 3560, "avoiding</w>": 3561, "Malala</w>": 3562, "Egypt</w>": 3563, "reinde": 3564, "farm</w>": 3565, "Kidman</w>": 3566, "behind</w>": 3567, "uterus</w>": 3568, "consensu": 3569, "casual": 3570, "Novemb": 3571, "Gandh": 3572, "Emanci": 3573, "Sugar</w>": 3574, "Baker</w>": 3575, "defibr": 3576, "attorney</w>": 3577, "miserable</w>": 3578, "personalities</w>": 3579, "frivol": 3580, "Proclam": 3581, "Denmark</w>": 3582, "backwards</w>": 3583, "attendance</w>": 3584, "Cruz</w>": 3585, "kindergar": 3586, "Massachus": 3587, "Calcul": 3588, "WIKI</w>": 3589, "Louisi": 3590, "photogra": 3591, "participate</w>": 3592, "pregnancy</w>": 3593, "Millennials</w>": 3594, "McCart": 3595, "favourite</w>": 3596, "Arithmetic": 3597, "Yousafza": 3598, "omitoriums</w>": 3599, "reindeer</w>": 3600, "consensus</w>": 3601, "casualties</w>": 3602, "November</w>": 3603, "Gandhi</w>": 3604, "Emancipa": 3605, "frivolous</w>": 3606, "Proclamation</w>": 3607, "kindergarten</w>": 3608, "Massachuset": 3609, "Calculus": 3610, "photograph": 3611, "McCartney</w>": 3612, "Emancipation</w>": 3613, "photographic</w>": 3614, "O</w>": 3615, "M</w>": 3616, "By</w>": 3617, "To": 3618, "Sal": 3619, "fre": 3620, "Ta": 3621, "stare</w>": 3622, "ren": 3623, "ini": 3624, "actions</w>": 3625, "oil": 3626, "pus": 3627, "stal": 3628, "nor": 3629, "lot</w>": 3630, "pig": 3631, "Tig": 3632, "ko": 3633, "Poo": 3634, "bor": 3635, "remo": 3636, "ons": 3637, "pat": 3638, "expe": 3639, "Per": 3640, "dog": 3641, "cho": 3642, "oods</w>": 3643, "Old</w>": 3644, "ham</w>": 3645, "meth": 3646, "SO": 3647, "dra": 3648, "fron": 3649, "peop": 3650, "alien</w>": 3651, "dev": 3652, "Tom</w>": 3653, "earn</w>": 3654, "wear": 3655, "sees</w>": 3656, "nu": 3657, "Han": 3658, "vap": 3659, "rit": 3660, "bus</w>": 3661, "cool": 3662, "gay": 3663, "May": 3664, "speak": 3665, "eling</w>": 3666, "gun</w>": 3667, "squ": 3668, "sequ": 3669, "bud": 3670, "ceNo</w>": 3671, "erThe</w>": 3672, "mid</w>": 3673, "Rec": 3674, "exact</w>": 3675, "Mor": 3676, "grow": 3677, "face</w>": 3678, "prac": 3679, "irs</w>": 3680, "things</w>": 3681, "ential</w>": 3682, "bring</w>": 3683, "Priv": 3684, "cured</w>": 3685, "pop</w>": 3686, "cop</w>": 3687, "boost</w>": 3688, "Mother</w>": 3689, "originThe</w>": 3690, "Americans": 3691, "fasts</w>": 3692, "Christ": 3693, "unc": 3694, "Typ": 3695, "invest</w>": 3696, "ests</w>": 3697, "vities</w>": 3698, "anyth": 3699, "grand": 3700, "heard</w>": 3701, "Twa": 3702, "Cats</w>": 3703, "conta": 3704, "bars</w>": 3705, "Stars</w>": 3706, "bread</w>": 3707, "breath</w>": 3708, "17": 3709, "claim": 3710, "class</w>": 3711, "200": 3712, "diets</w>": 3713, "addic": 3714, "predic": 3715, "intelligent</w>": 3716, "pp": 3717, "v</w>": 3718, "Brain</w>": 3719, "duck": 3720, "skill": 3721, "eyes": 3722, "gain": 3723, "Rain": 3724, "Mary</w>": 3725, "mile</w>": 3726, "simil": 3727, "small": 3728, "dro": 3729, "Pak": 3730, "fire": 3731, "gods</w>": 3732, "signs</w>": 3733, "eval</w>": 3734, "charact": 3735, "spirits": 3736, "Africa": 3737, "bert</w>": 3738, "sses</w>": 3739, "Noth": 3740, "treat": 3741, "knows</w>": 3742, "Nations</w>": 3743, "1969</w>": 3744, "Almost</w>": 3745, "priv": 3746, "StatesThe</w>": 3747, "line": 3748, "Satur": 3749, "round": 3750, "mons</w>": 3751, "Char": 3752, "kron": 3753, "CanadaThe</w>": 3754, "pub": 3755, "Canadian</w>": 3756, "Wat": 3757, "Devil</w>": 3758, "increases</w>": 3759, "trends</w>": 3760, "favors</w>": 3761, "inside</w>": 3762, "Wales</w>": 3763, "worked</w>": 3764, "fluent</w>": 3765, "charging</w>": 3766, "inner</w>": 3767, "each</w>": 3768, "Sea</w>": 3769, "muscle</w>": 3770, "gin</w>": 3771, "ip": 3772, "exception</w>": 3773, "magic</w>": 3774, "conclud": 3775, "autism": 3776, "accur": 3777, "victi": 3778, "victim": 3779, "Wake": 3780, "taxes</w>": 3781, "universe</w>": 3782, "oph": 3783, "demonstrated": 3784, "home</w>": 3785, "videog": 3786, "schoolEinstein</w>": 3787, "Pho": 3788, "Airport": 3789, "Win": 3790, "tastes</w>": 3791, "Federal</w>": 3792, "cough": 3793, "Fire": 3794, "recommend</w>": 3795, "plastic</w>": 3796, "acronym": 3797, "Asians</w>": 3798, "nearly</w>": 3799, "International</w>": 3800, "constitution</w>": 3801, "algorithm</w>": 3802, "whole</w>": 3803, "electric</w>": 3804, "PISA</w>": 3805, "Sara": 3806, "phara": 3807, "menstr": 3808, "Hitting</w>": 3809, "uncooked</w>": 3810, "CP": 3811, "BMIs</w>": 3812, "Dreams</w>": 3813, "ably</w>": 3814, "Sweden</w>": 3815, "cru": 3816, "Elec": 3817, "improves</w>": 3818, "weapons</w>": 3819, "purchase</w>": 3820, "club</w>": 3821, "Seattle</w>": 3822, "Face": 3823, "Virginia</w>": 3824, "absolute</w>": 3825, "pean": 3826, "bitcoin</w>": 3827, "percent": 3828, "Francis": 3829, "airplane</w>": 3830, "provided</w>": 3831, "definite": 3832, "thinkers</w>": 3833, "Sometimes</w>": 3834, "openly</w>": 3835, "villa": 3836, "mothers</w>": 3837, "Irish</w>": 3838, "Uly": 3839, "Hoover</w>": 3840, "bright": 3841, "barefoot</w>": 3842, "social</w>": 3843, "cigarettes</w>": 3844, "Austria</w>": 3845, "technology</w>": 3846, "Cinc": 3847, "hus": 3848, "Declar": 3849, "extinction</w>": 3850, "guaran": 3851, "Veins</w>": 3852, "Blondes</w>": 3853, "hyster": 3854, "psychopaths</w>": 3855, "necessar": 3856, "unequal</w>": 3857, "Broomsticks</w>": 3858, "successful</w>": 3859, "Teresa</w>": 3860, "profession": 3861, "Baum": 3862, "slaves</w>": 3863, "ulcers</w>": 3864, "kept</w>": 3865, "autob": 3866, "rescued</w>": 3867, "quickly</w>": 3868, "Poca": 3869, "disturb</w>": 3870, "problem</w>": 3871, "Uruguay</w>": 3872, "Palin</w>": 3873, "scores</w>": 3874, "Grem": 3875, "universal</w>": 3876, "aliensThe</w>": 3877, "fingerna": 3878, "consistently</w>": 3879, "caught</w>": 3880, "Smith</w>": 3881, "Prince": 3882, "conclusively</w>": 3883, "defibril": 3884, "Louisiana</w>": 3885, "north</w>": 3886, "Bang": 3887, "Pooh</w>": 3888, "expedi": 3889, "metho": 3890, "SOS</w>": 3891, "nutri": 3892, "Hanks</w>": 3893, "Mayo</w>": 3894, "square</w>": 3895, "budget</w>": 3896, "practic": 3897, "Type</w>": 3898, "Twain</w>": 3899, "contains</w>": 3900, "177": 3901, "claimed</w>": 3902, "predict</w>": 3903, "duckl": 3904, "smallest</w>": 3905, "Pakist": 3906, "characters</w>": 3907, "Saturn</w>": 3908, "published</w>": 3909, "Watson</w>": 3910, "accurately</w>": 3911, "victim</w>": 3912, "victims</w>": 3913, "Wakefi": 3914, "videogames</w>": 3915, "AirportThere</w>": 3916, "Winnie</w>": 3917, "Firemen</w>": 3918, "Sarah</w>": 3919, "pharao": 3920, "menstrual</w>": 3921, "CPR</w>": 3922, "crucial</w>": 3923, "Electronics</w>": 3924, "Facebook</w>": 3925, "peanut</w>": 3926, "percentage</w>": 3927, "Francisco": 3928, "definitely</w>": 3929, "villain": 3930, "brightest</w>": 3931, "Cinco</w>": 3932, "husband</w>": 3933, "Declaration</w>": 3934, "guarante": 3935, "hysterec": 3936, "necessarily</w>": 3937, "professional</w>": 3938, "Baume": 3939, "Pocah": 3940, "Gremlin</w>": 3941, "fingernails</w>": 3942, "defibrillation</w>": 3943, "expedition</w>": 3944, "practices</w>": 3945, "ducklings</w>": 3946, "villainous</w>": 3947, "hysterectom": 3948, "Baumeist": 3949, "Pocahont": 3950, "Baumeister</w>": 3951, "Pocahontas</w>": 3952, "V</w>": 3953, "Ma": 3954, "da": 3955, "Go</w>": 3956, "San": 3957, "iw": 3958, "questions</w>": 3959, "Gen": 3960, "rif": 3961, "ita</w>": 3962, "vor": 3963, "gol": 3964, "tionThe</w>": 3965, "mas</w>": 3966, "entr": 3967, "hair": 3968, "ser</w>": 3969, "shes</w>": 3970, "ced</w>": 3971, "root</w>": 3972, "AI</w>": 3973, "II</w>": 3974, "Wra": 3975, "ring": 3976, "door</w>": 3977, "rul": 3978, "alYou</w>": 3979, "zed</w>": 3980, "jum": 3981, "cap</w>": 3982, "eas": 3983, "Its</w>": 3984, "peri": 3985, "count</w>": 3986, "esame</w>": 3987, "ves": 3988, "He": 3989, "omos": 3990, "pom</w>": 3991, "Mad": 3992, "gay</w>": 3993, "Less</w>": 3994, "vere</w>": 3995, "sy</w>": 3996, "Stri": 3997, "lake</w>": 3998, "Pres": 3999, "Chic": 4000, "Wit": 4001, "visu": 4002, "contin": 4003, "ting": 4004, "naf": 4005, "Tay": 4006, "Stic": 4007, "quo": 4008, "cei": 4009, "Notr": 4010, "Kong</w>": 4011, "wr": 4012, "Pink</w>": 4013, "DN": 4014, "ds": 4015, "reve": 4016, "Aid</w>": 4017, "liqu": 4018, "cars</w>": 4019, "conver": 4020, "bat": 4021, "sation</w>": 4022, "aged": 4023, "Angr": 4024, "progr": 4025, "fs</w>": 4026, "paid</w>": 4027, "91</w>": 4028, "verte": 4029, "healing</w>": 4030, "childr": 4031, "Jes": 4032, "Average</w>": 4033, "cent</w>": 4034, "camp": 4035, "train": 4036, "Mexicans": 4037, "ational</w>": 4038, "ditional</w>": 4039, "impan": 4040, "anywhere</w>": 4041, "run</w>": 4042, "rug": 4043, "occu": 4044, "farm": 4045, "Marti": 4046, "artists</w>": 4047, "Ha": 4048, "wai": 4049, "danc": 4050, "filing</w>": 4051, "bs": 4052, "Gal": 4053, "organ</w>": 4054, "pitch</w>": 4055, "olars</w>": 4056, "healthy</w>": 4057, "ners</w>": 4058, "eu": 4059, "keep": 4060, "twice</w>": 4061, "rich": 4062, "planet</w>": 4063, "interest</w>": 4064, "Sund": 4065, "father</w>": 4066, "giant</w>": 4067, "mast": 4068, "Russians</w>": 4069, "Ala": 4070, "Cud": 4071, "Psych": 4072, "powers": 4073, "fini": 4074, "Europeans": 4075, "uary</w>": 4076, "polic": 4077, "physics</w>": 4078, "parent": 4079, "purr</w>": 4080, "Under": 4081, "Laws</w>": 4082, "athe": 4083, "ved": 4084, "tual</w>": 4085, "u</w>": 4086, "Busin": 4087, "They</w>": 4088, "Muslim</w>": 4089, "ks": 4090, "sugar": 4091, "c</w>": 4092, "idea</w>": 4093, "suic": 4094, "place": 4095, "decreas": 4096, "lied</w>": 4097, "currently</w>": 4098, "neg": 4099, "refers</w>": 4100, "refer": 4101, "movie</w>": 4102, "Angeles": 4103, "gener": 4104, "Rock</w>": 4105, "players</w>": 4106, "offend": 4107, "path": 4108, "Eag": 4109, "oils</w>": 4110, "house": 4111, "ological</w>": 4112, "Hun": 4113, "themYou</w>": 4114, "species</w>": 4115, "system": 4116, "expecting</w>": 4117, "phenomena</w>": 4118, "investment</w>": 4119, "investments</w>": 4120, "chickens</w>": 4121, "here": 4122, "master</w>": 4123, "teach</w>": 4124, "bought</w>": 4125, "propor": 4126, "ett": 4127, "ington</w>": 4128, "New": 4129, "data</w>": 4130, "little</w>": 4131, "target</w>": 4132, "wolves</w>": 4133, "assa": 4134, "roads</w>": 4135, "effectively</w>": 4136, "hib": 4137, "equally</w>": 4138, "factor</w>": 4139, "Mont": 4140, "sense</w>": 4141, "Greece</w>": 4142, "Argentina": 4143, "Catholics</w>": 4144, "Waking</w>": 4145, "letters</w>": 4146, "statement</w>": 4147, "Republic</w>": 4148, "ES": 4149, "function</w>": 4150, "edO": 4151, "Az": 4152, "Steve</w>": 4153, "Febr": 4154, "Cannabis</w>": 4155, "values</w>": 4156, "red": 4157, "ambul": 4158, "Snakes</w>": 4159, "require": 4160, "studies</w>": 4161, "Leg": 4162, "detox": 4163, "veget": 4164, "Intern": 4165, "Yale</w>": 4166, "Prop": 4167, "London": 4168, "Brun": 4169, "running</w>": 4170, "attribu": 4171, "Doc": 4172, "Common": 4173, "Leonar": 4174, "exorcist</w>": 4175, "promin": 4176, "ures</w>": 4177, "illness</w>": 4178, "buried</w>": 4179, "hitting</w>": 4180, "MM": 4181, "Burning</w>": 4182, "former</w>": 4183, "Portrait</w>": 4184, "finan": 4185, "weekends</w>": 4186, "electronics</w>": 4187, "rock</w>": 4188, "Stein": 4189, "butter</w>": 4190, "butter": 4191, "Swif": 4192, "inflation</w>": 4193, "inflation": 4194, "prefer": 4195, "seeds</w>": 4196, "Station</w>": 4197, "spaceThe</w>": 4198, "saint</w>": 4199, "mamm": 4200, "flunk</w>": 4201, "Hogwarts</w>": 4202, "clean</w>": 4203, "Sovi": 4204, "abdom": 4205, "yards</w>": 4206, "DiCap": 4207, "College</w>": 4208, "Germanic</w>": 4209, "polyn": 4210, "As": 4211, "ClintonHillary</w>": 4212, "Ninjas</w>": 4213, "Imm": 4214, "exercise</w>": 4215, "mouse</w>": 4216, "girl</w>": 4217, "drugs</w>": 4218, "Church</w>": 4219, "defense</w>": 4220, "Mat": 4221, "pome": 4222, "steak</w>": 4223, "education</w>": 4224, "universi": 4225, "Karma</w>": 4226, "Desert</w>": 4227, "corruption</w>": 4228, "Ships</w>": 4229, "elephants</w>": 4230, "contributes</w>": 4231, "Antiperspir": 4232, "coworkers</w>": 4233, "Chameleons</w>": 4234, "NIK": 4235, "bones</w>": 4236, "Insan": 4237, "wild</w>": 4238, "style</w>": 4239, "Rais": 4240, "horses</w>": 4241, "career</w>": 4242, "supermarket</w>": 4243, "Bargh</w>": 4244, "pillow</w>": 4245, "possessed</w>": 4246, "godd": 4247, "signific": 4248, "Lindberg": 4249, "heroin</w>": 4250, "predators</w>": 4251, "tortois": 4252, "cycles</w>": 4253, "lemming</w>": 4254, "alcohol</w>": 4255, "Manhunt</w>": 4256, "anormal</w>": 4257, "suspect</w>": 4258, "kidnapping</w>": 4259, "Massachusetts</w>": 4260, "opini": 4261, "push": 4262, "bean": 4263, "pigs</w>": 4264, "Tiger</w>": 4265, "draw</w>": 4266, "front</w>": 4267, "people": 4268, "vapor</w>": 4269, "Privet</w>": 4270, "sugg": 4271, "chav</w>": 4272, "Rainbows</w>": 4273, "similar</w>": 4274, "wardro": 4275, "Albert</w>": 4276, "Mormons</w>": 4277, "Chartreuse</w>": 4278, "thinner</w>": 4279, "virgin</w>": 4280, "izoph": 4281, "coughing</w>": 4282, "undeni": 4283, "Ulysses</w>": 4284, "autobahn</w>": 4285, "Bangko": 4286, "Wakefield</w>": 4287, "guarantee</w>": 4288, "Wrath</w>": 4289, "visual</w>": 4290, "naff</w>": 4291, "Sticking</w>": 4292, "Notre</w>": 4293, "reveal</w>": 4294, "liquid</w>": 4295, "Angry</w>": 4296, "vertebr": 4297, "children": 4298, "impanz": 4299, "occur</w>": 4300, "Martin</w>": 4301, "Galap": 4302, "mastery</w>": 4303, "Cuddy</w>": 4304, "finished</w>": 4305, "offenders</w>": 4306, "proportion</w>": 4307, "Newton</w>": 4308, "assault</w>": 4309, "Montreal</w>": 4310, "ESP</w>": 4311, "Aztec": 4312, "detoxi": 4313, "Internet</w>": 4314, "Doctors</w>": 4315, "Commonwe": 4316, "Leonardo</w>": 4317, "MMR</w>": 4318, "financial</w>": 4319, "Steinbe": 4320, "Swifties</w>": 4321, "mammals</w>": 4322, "abdomen</w>": 4323, "DiCapri": 4324, "polynom": 4325, "Aspartame</w>": 4326, "Immaculate</w>": 4327, "Matadors</w>": 4328, "pomegran": 4329, "Antiperspirants</w>": 4330, "NIKE</w>": 4331, "Insanity</w>": 4332, "Raisins</w>": 4333, "goddess</w>": 4334, "Lindbergh</w>": 4335, "pushing</w>": 4336, "beanstal": 4337, "suggests</w>": 4338, "izophren": 4339, "undeniably</w>": 4340, "Galapag": 4341, "Aztec</w>": 4342, "detoxify</w>": 4343, "Commonweal": 4344, "Steinbeck</w>": 4345, "DiCaprio</w>": 4346, "polynomi": 4347, "beanstalk</w>": 4348, "Galapagos</w>": 4349, "Commonwealth</w>": 4350, "H</w>": 4351, "art</w>": 4352, ")?</w>": 4353, "Al</w>": 4354, "Dan": 4355, "hare</w>": 4356, "fat": 4357, "'ve</w>": 4358, "ering</w>": 4359, "fle": 4360, "ley</w>": 4361, "Cle": 4362, "Tus": 4363, "Ju": 4364, "\"\"</w>": 4365, "Were</w>": 4366, "Hig": 4367, "Has</w>": 4368, "Thom": 4369, "iron</w>": 4370, "ech": 4371, "Fla": 4372, "ages</w>": 4373, "wall</w>": 4374, "sho": 4375, "sha": 4376, "cap": 4377, "anci": 4378, "DU": 4379, "rad</w>": 4380, "radi": 4381, "ount</w>": 4382, "ving": 4383, "bri": 4384, "Tar": 4385, "AT": 4386, "happenIf</w>": 4387, "roo": 4388, "avi": 4389, "almost</w>": 4390, "\"-</w>": 4391, "hump</w>": 4392, "read": 4393, "dead": 4394, "bell</w>": 4395, "earli": 4396, "fall": 4397, "proc": 4398, "aYou</w>": 4399, "air</w>": 4400, "sed</w>": 4401, "wage</w>": 4402, "Br": 4403, "ols</w>": 4404, "Dam</w>": 4405, "toad</w>": 4406, "ered</w>": 4407, "color": 4408, "ned": 4409, "sob": 4410, "Light</w>": 4411, "fires</w>": 4412, "Did</w>": 4413, "ning": 4414, "ted": 4415, "UKThe</w>": 4416, "else": 4417, "Wes": 4418, "marri": 4419, "gring": 4420, "blind</w>": 4421, "flown</w>": 4422, "Euros": 4423, "ness": 4424, "Earth": 4425, "ell": 4426, "originate</w>": 4427, "bod": 4428, "fair": 4429, "create</w>": 4430, "posh</w>": 4431, "ward</w>": 4432, "trait": 4433, "anime</w>": 4434, "commentPeople</w>": 4435, "leper</w>": 4436, "Mexican</w>": 4437, "invent": 4438, "reach": 4439, "erI</w>": 4440, "tons</w>": 4441, "fictional</w>": 4442, "Nig": 4443, "rice</w>": 4444, "cog": 4445, "During</w>": 4446, "diversity</w>": 4447, "grew</w>": 4448, "eur": 4449, "erm": 4450, "cal": 4451, "pra": 4452, "flying</w>": 4453, "showed</w>": 4454, "perfor": 4455, "pt": 4456, "singer</w>": 4457, "access</w>": 4458, "winter": 4459, "tsI</w>": 4460, "differ</w>": 4461, "Ital": 4462, "gold</w>": 4463, "Motion</w>": 4464, "crap</w>": 4465, "terri": 4466, "hours": 4467, "stick</w>": 4468, "vels</w>": 4469, "duck</w>": 4470, "crack</w>": 4471, "indepen": 4472, "milli": 4473, "milit": 4474, "growing</w>": 4475, "spends</w>": 4476, "sof": 4477, "sound</w>": 4478, "identity</w>": 4479, "tsYou</w>": 4480, "sign</w>": 4481, "events</w>": 4482, "soldi": 4483, "unknown</w>": 4484, "pillar": 4485, "oil</w>": 4486, "Romans</w>": 4487, "constitu": 4488, "citi": 4489, "aliens</w>": 4490, "larger</w>": 4491, "bigger</w>": 4492, "capital</w>": 4493, "election": 4494, "Canni": 4495, "treat</w>": 4496, "experi": 4497, "instead</w>": 4498, "Netherland": 4499, "ox": 4500, "mouth</w>": 4501, "based</w>": 4502, "Because</w>": 4503, "Demo": 4504, "refuse</w>": 4505, "business</w>": 4506, "geni": 4507, "Phy": 4508, "StatesPeople</w>": 4509, "require</w>": 4510, "offen": 4511, "Gho": 4512, "leave</w>": 4513, "knuck": 4514, "immig": 4515, "literary</w>": 4516, "tax</w>": 4517, "box</w>": 4518, "EnglandIt</w>": 4519, "ings": 4520, "carbs</w>": 4521, "erv": 4522, "condition</w>": 4523, "consider</w>": 4524, "considered</w>": 4525, "violence</w>": 4526, "violated</w>": 4527, "outside</w>": 4528, "oldest</w>": 4529, "ences</w>": 4530, "Paris": 4531, "charged</w>": 4532, "Harvar": 4533, "control": 4534, "Gar": 4535, "surg": 4536, "undercover</w>": 4537, "stal</w>": 4538, "Named</w>": 4539, "straight</w>": 4540, "boss</w>": 4541, "quacks</w>": 4542, "attacks</w>": 4543, "Oz</w>": 4544, "prime</w>": 4545, "allows</w>": 4546, "immedi": 4547, "flatI</w>": 4548, "Tor": 4549, "Exorci": 4550, "appear": 4551, "Catholic": 4552, "Portu": 4553, "views</w>": 4554, "tricks</w>": 4555, "subject</w>": 4556, "famously</w>": 4557, "harm</w>": 4558, "foxes</w>": 4559, "cookie</w>": 4560, "Drinking</w>": 4561, "formed</w>": 4562, "source</w>": 4563, "tech</w>": 4564, "detec": 4565, "night": 4566, "straight": 4567, "yellow</w>": 4568, "mix": 4569, "bleed</w>": 4570, "buildings</w>": 4571, "stove</w>": 4572, "causes</w>": 4573, "viruses</w>": 4574, "spicy</w>": 4575, "Known</w>": 4576, "flatline</w>": 4577, "political</w>": 4578, "politics</w>": 4579, "getting</w>": 4580, "Know": 4581, "taut": 4582, "rope</w>": 4583, "Comple": 4584, "Domin": 4585, "hatch</w>": 4586, "modern</w>": 4587, "toge": 4588, "Alge": 4589, "ker": 4590, "properties</w>": 4591, "property</w>": 4592, "EnglishAll</w>": 4593, "BMI</w>": 4594, "Burr": 4595, "disorder</w>": 4596, "include</w>": 4597, "bald": 4598, "improve</w>": 4599, "hub</w>": 4600, "subjects</w>": 4601, "Virginia": 4602, "absolutely</w>": 4603, "buys</w>": 4604, "Naur": 4605, "osaur": 4606, "ances": 4607, "Country</w>": 4608, "movement</w>": 4609, "pavement</w>": 4610, "holding</w>": 4611, "alcohol": 4612, "flunked</w>": 4613, "circ": 4614, "replicate": 4615, "Citi": 4616, "Holo": 4617, "Icel": 4618, "doctors</w>": 4619, "respon": 4620, "premat": 4621, "highly</w>": 4622, "everyday</w>": 4623, "earnings</w>": 4624, "Eston": 4625, "MuskElon</w>": 4626, "tourist</w>": 4627, "publicThe</w>": 4628, "considers</w>": 4629, "disorders</w>": 4630, "Massacre</w>": 4631, "Massacre": 4632, "damage</w>": 4633, "Ulster": 4634, "same": 4635, "gunshot</w>": 4636, "sounds</w>": 4637, "temper": 4638, "mornings</w>": 4639, "individuals</w>": 4640, "Economics</w>": 4641, "Florida</w>": 4642, "empl": 4643, "leader</w>": 4644, "Books</w>": 4645, "payment</w>": 4646, "determin": 4647, "conscious</w>": 4648, "depletion</w>": 4649, "Visi": 4650, "distinction</w>": 4651, "threatened</w>": 4652, "Pangolin</w>": 4653, "mantis</w>": 4654, "useful</w>": 4655, "stands</w>": 4656, "broad": 4657, "1940</w>": 4658, "designed</w>": 4659, "Wash": 4660, "Orange</w>": 4661, "Miam": 4662, "logic</w>": 4663, "Clock": 4664, "relative</w>": 4665, "bacter": 4666, "Carnal</w>": 4667, "passen": 4668, "songs</w>": 4669, "brilliant</w>": 4670, "Vene": 4671, "abilities</w>": 4672, "BritainThe</w>": 4673, "Purchase</w>": 4674, "Brazil</w>": 4675, "cultural</w>": 4676, "Diamonds</w>": 4677, "microwave</w>": 4678, "goldfish</w>": 4679, "Porcupines</w>": 4680, "Yousafzai</w>": 4681, "Vomitoriums</w>": 4682, "Toto</w>": 4683, "attractions</w>": 4684, "goods</w>": 4685, "wearing</w>": 4686, "irrit": 4687, "Bet": 4688, "speakThere</w>": 4689, "sequence</w>": 4690, "essential</w>": 4691, "activities</w>": 4692, "addicted</w>": 4693, "gained</w>": 4694, "medieval</w>": 4695, "flatline": 4696, "conclude</w>": 4697, "methods</w>": 4698, "Pakistan</w>": 4699, "hysterectomy</w>": 4700, "TV</w>": 4701, "Kiw": 4702, "Genet</w>": 4703, "rifle</w>": 4704, "Lol": 4705, "denser</w>": 4706, "VIII</w>": 4707, "ringer</w>": 4708, "Sesame</w>": 4709, "homos": 4710, "Madri": 4711, "Chicago": 4712, "Tayl": 4713, "wrong</w>": 4714, "DNA</w>": 4715, "batter": 4716, "Jesus</w>": 4717, "Nothing": 4718, "campus</w>": 4719, "traditional</w>": 4720, "foreigners</w>": 4721, "euth": 4722, "keeps</w>": 4723, "Sunday</w>": 4724, "Alask": 4725, "Undercover</w>": 4726, "atheists</w>": 4727, "Business": 4728, "negative</w>": 4729, "referring</w>": 4730, "Nowhere": 4731, "vegetable</w>": 4732, "Proper": 4733, "attributed</w>": 4734, "Soviet</w>": 4735, "universities</w>": 4736, "paranormal</w>": 4737, "Bangkok</w>": 4738, "vertebrates</w>": 4739, "unfinished</w>": 4740, "izophrenics</w>": 4741, "Cleop": 4742, "echo</w>": 4743, "roots</w>": 4744, "sober</w>": 4745, "Wester": 4746, "gringo</w>": 4747, "traits": 4748, "Niger": 4749, "cogni": 4750, "praying</w>": 4751, "performan": 4752, "winterThe</w>": 4753, "softw": 4754, "soldiers</w>": 4755, "pillars</w>": 4756, "constitutional</w>": 4757, "Cannib": 4758, "genius</w>": 4759, "Physi": 4760, "Ghosts</w>": 4761, "knuckles</w>": 4762, "immigr": 4763, "surgery</w>": 4764, "Portug": 4765, "Knowledge</w>": 4766, "tautology</w>": 4767, "Complete</w>": 4768, "Burrough": 4769, "baldness</w>": 4770, "circum": 4771, "Citiz": 4772, "Holoca": 4773, "premature</w>": 4774, "MassacreFac": 4775, "Ulstermen</w>": 4776, "employ": 4777, "determined</w>": 4778, "Visionaries</w>": 4779, "Clockwork</w>": 4780, "passenger</w>": 4781, "Venez": 4782, "Kiwis</w>": 4783, "Lolita</w>": 4784, "homosex": 4785, "Taylor</w>": 4786, "euthan": 4787, "NowhereThere</w>": 4788, "Property</w>": 4789, "Cleopat": 4790, "Western</w>": 4791, "Nigeria</w>": 4792, "software</w>": 4793, "Cannibal</w>": 4794, "Physiology</w>": 4795, "Burroughs</w>": 4796, "circumst": 4797, "Citizen</w>": 4798, "MassacreFaces</w>": 4799, "Venezuel": 4800, "euthanasi": 4801, "Cleopatr": 4802, "circumstances</w>": 4803, "euthanasia</w>": 4804, "Cleopatra</w>": 4805, "At</w>": 4806, "Ir": 4807, "Of</w>": 4808, "answers</w>": 4809, "ud</w>": 4810, "stom": 4811, "opp": 4812, "tow": 4813, "Sam": 4814, "Ea": 4815, "now": 4816, "ush</w>": 4817, "Ug": 4818, "mig": 4819, "els</w>": 4820, "ches</w>": 4821, "move</w>": 4822, "stThe</w>": 4823, "ago</w>": 4824, "action</w>": 4825, "wore</w>": 4826, "main</w>": 4827, "ood": 4828, "dent": 4829, "rots</w>": 4830, "Let</w>": 4831, "tYou</w>": 4832, "alleg": 4833, "form": 4834, "Dame</w>": 4835, "sever": 4836, "prove</w>": 4837, "tap</w>": 4838, "ism</w>": 4839, "buc": 4840, "chThe</w>": 4841, "Fri": 4842, "From</w>": 4843, "Fal": 4844, "tis": 4845, "keYou</w>": 4846, "plan</w>": 4847, "expl": 4848, "pent": 4849, "ence": 4850, "tiv": 4851, "lasts</w>": 4852, "foun": 4853, "sA</w>": 4854, "ten": 4855, "rog": 4856, "Year": 4857, "ecu": 4858, "term</w>": 4859, "Qa": 4860, "digest</w>": 4861, "Stud": 4862, "ours</w>": 4863, "ices</w>": 4864, "wings</w>": 4865, "81</w>": 4866, "poor": 4867, "pork</w>": 4868, "wop</w>": 4869, "less": 4870, "occur": 4871, "fair</w>": 4872, "board</w>": 4873, "sym": 4874, "Gi": 4875, "Cla": 4876, "prom": 4877, "train</w>": 4878, "Just</w>": 4879, "want</w>": 4880, "overnight</w>": 4881, "Christians": 4882, "destr": 4883, "Mand": 4884, "warm": 4885, "mes</w>": 4886, "file</w>": 4887, "attend</w>": 4888, "green</w>": 4889, "ulated</w>": 4890, "kins</w>": 4891, "quill": 4892, "women": 4893, "tsThe</w>": 4894, "sides</w>": 4895, "given</w>": 4896, "return</w>": 4897, "Russians": 4898, "Kent": 4899, "landThe</w>": 4900, "buck": 4901, "ersYes</w>": 4902, "Italians": 4903, "believed</w>": 4904, "bias": 4905, "cryp": 4906, "spending</w>": 4907, "physically</w>": 4908, "Gates": 4909, "truth": 4910, "acted</w>": 4911, "2010</w>": 4912, "Koreans</w>": 4913, "esThere</w>": 4914, "student": 4915, "Rob": 4916, "itt": 4917, "hael</w>": 4918, "gThe</w>": 4919, "existence</w>": 4920, "mother</w>": 4921, "whe": 4922, "Jew": 4923, "ansAmericans</w>": 4924, "em</w>": 4925, "miner": 4926, "minu": 4927, "aThe</w>": 4928, "ingIt</w>": 4929, "ected</w>": 4930, "forces</w>": 4931, "aster": 4932, "presented</w>": 4933, "StatesIt</w>": 4934, "16</w>": 4935, "wine": 4936, "venom": 4937, "Wiz": 4938, "eball</w>": 4939, "acles</w>": 4940, "personality": 4941, "Bal": 4942, "report": 4943, "kson</w>": 4944, "touris": 4945, "trained</w>": 4946, "lic": 4947, "mathe": 4948, "specific</w>": 4949, "systems</w>": 4950, "fortune</w>": 4951, "succe": 4952, "influ": 4953, "fluid</w>": 4954, "brainThere</w>": 4955, "religion": 4956, "Sher": 4957, "cliff</w>": 4958, "appro": 4959, "survi": 4960, "surve": 4961, "omeop": 4962, "behalf</w>": 4963, "ely</w>": 4964, "wolf": 4965, "government": 4966, "lucky</w>": 4967, "Go": 4968, "prim": 4969, "slow": 4970, "prosec": 4971, "strike</w>": 4972, "Love</w>": 4973, "exists</w>": 4974, "deny</w>": 4975, "view</w>": 4976, "coaches</w>": 4977, "Fo": 4978, "tel": 4979, "kines": 4980, "memor": 4981, "breakfa": 4982, "bid": 4983, "lightly</w>": 4984, "swim</w>": 4985, "lose</w>": 4986, "drank</w>": 4987, "conspir": 4988, "cycle</w>": 4989, "cutting</w>": 4990, "ussions</w>": 4991, "break</w>": 4992, "yThere</w>": 4993, "toxins</w>": 4994, "Artificial</w>": 4995, "countriesIt</w>": 4996, "intelligence": 4997, "swimming": 4998, "Georgia</w>": 4999, "donor</w>": 5000, "Counci": 5001, "econ": 5002, "neural</w>": 5003, "poison</w>": 5004, "mon</w>": 5005, "talk</w>": 5006, "Philadelphia": 5007, "communic": 5008, "scientists": 5009, "moderately</w>": 5010, "killed</w>": 5011, "ney": 5012, "tives</w>": 5013, "quanti": 5014, "network": 5015, "consumption</w>": 5016, "founders</w>": 5017, "Mozart": 5018, "bald</w>": 5019, "expen": 5020, "away": 5021, "Christianity</w>": 5022, "languageIt</w>": 5023, "Seattle": 5024, "ure": 5025, "percent</w>": 5026, "Francisc": 5027, "provides</w>": 5028, "Eber": 5029, "vaccinated</w>": 5030, "knights</w>": 5031, "Knights</w>": 5032, "Someone</w>": 5033, "domes": 5034, "college</w>": 5035, "Belar": 5036, "Indians</w>": 5037, "Boston": 5038, "pets": 5039, "MuskHis</w>": 5040, "affordab": 5041, "summer</w>": 5042, "chew</w>": 5043, "verage": 5044, "taken</w>": 5045, "pounds</w>": 5046, "biased</w>": 5047, "tempor": 5048, "TrumpHis</w>": 5049, "TrumpDonald</w>": 5050, "correlated</w>": 5051, "familyThere</w>": 5052, "Economic": 5053, "23</w>": 5054, "Birds</w>": 5055, "leaves</w>": 5056, "criminal</w>": 5057, "reducing</w>": 5058, "followed</w>": 5059, "following</w>": 5060, "chemic": 5061, "chemical</w>": 5062, "Spanish": 5063, "meaning</w>": 5064, "Jose": 5065, "transpor": 5066, "clothes</w>": 5067, "confidential</w>": 5068, "terror": 5069, "YorkThe</w>": 5070, "Berke": 5071, "passports</w>": 5072, "digestive</w>": 5073, "fly": 5074, "devout</w>": 5075, "cooler</w>": 5076, "growth</w>": 5077, "chairs</w>": 5078, "skilled</w>": 5079, "treatments</w>": 5080, "private</w>": 5081, "equip": 5082, "1776</w>": 5083, "pharaoh</w>": 5084, "Mado": 5085, "golf</w>": 5086, "enced</w>": 5087, "rules</w>": 5088, "decrimin": 5089, "easily</w>": 5090, "Revere</w>": 5091, "conversation</w>": 5092, "descent</w>": 5093, "reational</w>": 5094, "rugby</w>": 5095, "Hawai": 5096, "dancing</w>": 5097, "ribs": 5098, "richest": 5099, "parents": 5100, "spiritual</w>": 5101, "suicide</w>": 5102, "telepath": 5103, "Eagles</w>": 5104, "prohib": 5105, "February</w>": 5106, "ambulance</w>": 5107, "measures</w>": 5108, "preferred</w>": 5109, "tortoise</w>": 5110, "opinion</w>": 5111, "wardrobe</w>": 5112, "childrenSugar</w>": 5113, "chimpanz": 5114, "pomegranate</w>": 5115, "polynomials</w>": 5116, "engine": 5117, "Thomas</w>": 5118, "shoe": 5119, "ancient</w>": 5120, "DUI</w>": 5121, "radio</w>": 5122, "Tarpen": 5123, "ATM</w>": 5124, "banned": 5125, "reaching</w>": 5126, "Therm": 5127, "military</w>": 5128, "citiz": 5129, "experience</w>": 5130, "siblings": 5131, "Harvard": 5132, "controlled</w>": 5133, "immediately</w>": 5134, "Estonia</w>": 5135, "temperat": 5136, "Washington</w>": 5137, "irritate</w>": 5138, "cognition</w>": 5139, "employer</w>": 5140, "Venezuela</w>": 5141, "Ugly</w>": 5142, "Falk": 5143, "pentag": 5144, "Qaed": 5145, "Given</w>": 5146, "Kentuck": 5147, "crypti": 5148, "whether</w>": 5149, "Balz": 5150, "tourism</w>": 5151, "mathema": 5152, "surveil": 5153, "omeopath": 5154, "slowly</w>": 5155, "Foxes</w>": 5156, "breakfast": 5157, "bidden</w>": 5158, "conspirac": 5159, "Council</w>": 5160, "economic</w>": 5161, "MozartSalieri</w>": 5162, "expensive</w>": 5163, "Francisco</w>": 5164, "Eberhard</w>": 5165, "domestic</w>": 5166, "petsAustralians</w>": 5167, "affordableThe</w>": 5168, "temporary</w>": 5169, "Economics": 5170, "equipment</w>": 5171, "decriminali": 5172, "Si": 5173, "shoema": 5174, "Falkland</w>": 5175, "mathematical</w>": 5176, "surveillan": 5177, "decriminalized</w>": 5178, "Sibl": 5179, "shoemaker</w>": 5180, "surveillance</w>": 5181, "Jan": 5182, "Ou": 5183, "win</w>": 5184, "anal": 5185, "ph</w>": 5186, "ler</w>": 5187, "nam": 5188, "ith": 5189, "Gan": 5190, "lit</w>": 5191, "Ru": 5192, "wer": 5193, "Dar": 5194, "here</w>": 5195, "thir": 5196, "chri": 5197, "comb": 5198, "Sun": 5199, "shit</w>": 5200, "sil": 5201, "shap": 5202, "caus": 5203, "ty": 5204, "esI</w>": 5205, "store</w>": 5206, "ention</w>": 5207, "inging</w>": 5208, "ja</w>": 5209, "ful": 5210, "lap": 5211, "onYou</w>": 5212, "door": 5213, "youIf</w>": 5214, "Sim": 5215, "rele": 5216, "kr": 5217, "ots</w>": 5218, "acts</w>": 5219, "beha": 5220, "ection</w>": 5221, "ely": 5222, "ef": 5223, "Rich</w>": 5224, "bos": 5225, "Ban": 5226, "Ab": 5227, "liver</w>": 5228, "ade</w>": 5229, "Bear": 5230, "commun": 5231, "alum": 5232, "tax": 5233, "Sh": 5234, "cake</w>": 5235, "ution</w>": 5236, "ress": 5237, "Eo": 5238, "date</w>": 5239, "late</w>": 5240, "speed</w>": 5241, "spin": 5242, "cover": 5243, "erIf</w>": 5244, "speaks</w>": 5245, "tot": 5246, "else</w>": 5247, "heat</w>": 5248, "ked": 5249, "Has": 5250, "anThe</w>": 5251, "bra": 5252, "hang": 5253, "spec": 5254, "Among</w>": 5255, "parch": 5256, "unless</w>": 5257, "acci": 5258, "times": 5259, "death": 5260, "firm": 5261, "UKIt</w>": 5262, "nation</w>": 5263, "leag": 5264, "month": 5265, "meals</w>": 5266, "edThere</w>": 5267, "edYou</w>": 5268, "fiction": 5269, "moves</w>": 5270, "kni": 5271, "ging": 5272, "Geral": 5273, "path</w>": 5274, "pati": 5275, "inted</w>": 5276, "terms</w>": 5277, "post</w>": 5278, "brand</w>": 5279, "au</w>": 5280, "din": 5281, "flo": 5282, "best": 5283, "estate</w>": 5284, "ety</w>": 5285, "Mer": 5286, "stem</w>": 5287, "disgu": 5288, "sick": 5289, "poses</w>": 5290, "sib": 5291, "liz": 5292, "takes</w>": 5293, "seven</w>": 5294, "exam": 5295, "lamp": 5296, "Christ</w>": 5297, "collec": 5298, "Lin": 5299, "animal": 5300, "thous": 5301, "Gas": 5302, "intol": 5303, "pe</w>": 5304, "grad</w>": 5305, "ese": 5306, "ecra": 5307, "desNo</w>": 5308, "cough</w>": 5309, "army</w>": 5310, "tYes</w>": 5311, "Lanc": 5312, "franc": 5313, "lost</w>": 5314, "tionYou</w>": 5315, "lots</w>": 5316, "veins</w>": 5317, "var": 5318, "Ira": 5319, "abbre": 5320, "Amend": 5321, "eIf</w>": 5322, "apple</w>": 5323, "Last</w>": 5324, "Jur": 5325, "site</w>": 5326, "bite</w>": 5327, "told</w>": 5328, "assum": 5329, "Auck": 5330, "Vampir": 5331, "Eating</w>": 5332, "oper": 5333, "cust": 5334, "sust": 5335, "Party</w>": 5336, "ersNo</w>": 5337, "Past</w>": 5338, "belief</w>": 5339, "les": 5340, "stuck</w>": 5341, "Suther": 5342, "music": 5343, "Fu": 5344, "ounding</w>": 5345, "pull</w>": 5346, "mal": 5347, "25</w>": 5348, "hr</w>": 5349, "drink": 5350, "Emir": 5351, "Unlaw": 5352, "Pfi": 5353, "held</w>": 5354, "solved</w>": 5355, "acter</w>": 5356, "ersAll</w>": 5357, "timeThe</w>": 5358, "Unknown</w>": 5359, "mind": 5360, "tiger</w>": 5361, "cases</w>": 5362, "doses</w>": 5363, "kis": 5364, "perform</w>": 5365, "ums": 5366, "Gun": 5367, "etsNo</w>": 5368, "witch</w>": 5369, "base</w>": 5370, "basic</w>": 5371, "Rap": 5372, "treme</w>": 5373, "duce</w>": 5374, "uar": 5375, "languages": 5376, "helps</w>": 5377, "players": 5378, "StatesAmericans</w>": 5379, "Scotland": 5380, "fundamental</w>": 5381, "Roes": 5382, "ounded</w>": 5383, "ization</w>": 5384, "seiz": 5385, "realNo</w>": 5386, "upIf</w>": 5387, "CanadaIt</w>": 5388, "Anyone</w>": 5389, "Willi": 5390, "Obis": 5391, "six</w>": 5392, "shares</w>": 5393, "shared</w>": 5394, "EnglandYes</w>": 5395, "HT": 5396, "clu": 5397, "clients</w>": 5398, "client": 5399, "cousin": 5400, "Gold": 5401, "Denmark": 5402, "Blood</w>": 5403, "Bloo": 5404, "brainA</w>": 5405, "Two</w>": 5406, "Cardi": 5407, "ance": 5408, "reach</w>": 5409, "ugly</w>": 5410, "adult</w>": 5411, "pave": 5412, "Ross</w>": 5413, "Luis</w>": 5414, "Luke</w>": 5415, "viral</w>": 5416, "virus": 5417, "reasons</w>": 5418, "Monac": 5419, "Montre": 5420, "sense": 5421, "thetic</w>": 5422, "iv": 5423, "eviden": 5424, "Mari": 5425, "Isra": 5426, "exc": 5427, "metric": 5428, "humanAll</w>": 5429, "CEO": 5430, "value": 5431, "kinds</w>": 5432, "producer</w>": 5433, "compare</w>": 5434, "event": 5435, "420</w>": 5436, "weight": 5437, "Poverty</w>": 5438, "schoolBill</w>": 5439, "balloonThe</w>": 5440, "injure</w>": 5441, "icThe</w>": 5442, "bulb</w>": 5443, "bulls</w>": 5444, "inspir": 5445, "offici": 5446, "tors": 5447, "Trials</w>": 5448, "billion": 5449, "billionThe</w>": 5450, "snowNew</w>": 5451, "situation</w>": 5452, "Asia</w>": 5453, "Nearly</w>": 5454, "toxic</w>": 5455, "countryIt</w>": 5456, "countryThere</w>": 5457, "countryPeople</w>": 5458, "politici": 5459, "energy": 5460, "diseases</w>": 5461, "disease": 5462, "Dut": 5463, "masters</w>": 5464, "icAll</w>": 5465, "raise</w>": 5466, "Motors</w>": 5467, "Islands": 5468, "IrelandThe</w>": 5469, "friend</w>": 5470, "better": 5471, "talent</w>": 5472, "iness</w>": 5473, "burgers": 5474, "ties": 5475, "EnglishThe</w>": 5476, "worldThe</w>": 5477, "worldThere</w>": 5478, "gain</w>": 5479, "Dream": 5480, "DNA": 5481, "secretly</w>": 5482, "bonds</w>": 5483, "Sweden": 5484, "Street": 5485, "smarter": 5486, "network</w>": 5487, "attacks": 5488, "unknown": 5489, "weekend": 5490, "cars": 5491, "Hind": 5492, "defend</w>": 5493, "Swift</w>": 5494, "subjective": 5495, "easier</w>": 5496, "alsThe</w>": 5497, "copyrig": 5498, "ches": 5499, "Mantell</w>": 5500, "Kong": 5501, "Lung</w>": 5502, "coldIf</w>": 5503, "situation": 5504, "seek</w>": 5505, "photo</w>": 5506, "Union": 5507, "berg</w>": 5508, "GermanyThe</w>": 5509, "KingdomThe</w>": 5510, "drug": 5511, "replicate</w>": 5512, "conclusive</w>": 5513, "cell": 5514, "ians</w>": 5515, "Irish": 5516, "mass": 5517, "Mis": 5518, "mission</w>": 5519, "Countries</w>": 5520, "respond</w>": 5521, "Cape</w>": 5522, "suffici": 5523, "Belfast</w>": 5524, "barefoo": 5525, "illegalYou</w>": 5526, "Ultra": 5527, "name": 5528, "spo": 5529, "exag": 5530, "Arab</w>": 5531, "2019</w>": 5532, "factors</w>": 5533, "Linden": 5534, "aspartame</w>": 5535, "modelI</w>": 5536, "ninjas</w>": 5537, "various</w>": 5538, "achieve</w>": 5539, "achieving</w>": 5540, "immaculate</w>": 5541, "individual</w>": 5542, "ta</w>": 5543, "dieIf</w>": 5544, "insul": 5545, "aIt</w>": 5546, "rainfor": 5547, "ship</w>": 5548, "looks</w>": 5549, "Michig": 5550, "determ": 5551, "conscious": 5552, "facil": 5553, "sThere</w>": 5554, "visionaries</w>": 5555, "commentUnknown": 5556, "pangolin</w>": 5557, "Drive</w>": 5558, "Finland</w>": 5559, "birth": 5560, "snake</w>": 5561, "dreams": 5562, "transform</w>": 5563, "theories</w>": 5564, "organize</w>": 5565, "cousins": 5566, "freed</w>": 5567, "labor": 5568, "patented</w>": 5569, "Persi": 5570, "Rod": 5571, "feeling</w>": 5572, "Feeling</w>": 5573, "Recor": 5574, "anything": 5575, "anythingThe</w>": 5576, "grandparents</w>": 5577, "Phoen": 5578, "Phoeni": 5579, "UniversityPrince": 5580, "divor": 5581, "wishes</w>": 5582, "jumps</w>": 5583, "period</w>": 5584, "Hewit": 5585, "Presley": 5586, "Witch</w>": 5587, "quote</w>": 5588, "ceived</w>": 5589, "programm": 5590, "timeAverage</w>": 5591, "training</w>": 5592, "Scholars</w>": 5593, "policies</w>": 5594, "burg</w>": 5595, "books": 5596, "sugarNo</w>": 5597, "Marc</w>": 5598, "Hunting": 5599, "declin": 5600, "threatenedO": 5601, "requirements</w>": 5602, "Legal</w>": 5603, "UniversityY": 5604, "LondonLos</w>": 5605, "Brunsw": 5606, "prominence</w>": 5607, "flagBurning</w>": 5608, "butterfly</w>": 5609, "significan": 5610, "HHHH": 5611, "July</w>": 5612, "High</w>": 5613, "Flav": 5614, "mount</w>": 5615, "bridge</w>": 5616, "Davi": 5617, "earlier</w>": 5618, "unning": 5619, "EarthI</w>": 5620, "fairest</w>": 5621, "forward</w>": 5622, "inventor</w>": 5623, "euros</w>": 5624, "territor": 5625, "HogwartsYou</w>": 5626, "NetherlandsThe</w>": 5627, "conserv": 5628, "Postal</w>": 5629, "Exorcists</w>": 5630, "mixed</w>": 5631, "nose": 5632, "Dominic": 5633, "together</w>": 5634, "Nauru</w>": 5635, "Steg": 5636, "responsible</w>": 5637, "broadcast</w>": 5638, "Miami</w>": 5639, "bacteria</w>": 5640, "Betsy</w>": 5641, "Madrid": 5642, "sameNothing": 5643, "performance</w>": 5644, "Portugues": 5645, "homosexual</w>": 5646, "Iron</w>": 5647, "Easter</w>": 5648, "several</w>": 5649, "bucks</w>": 5650, "tissu": 5651, "explo": 5652, "enceThe</w>": 5653, "tender</w>": 5654, "ecutive</w>": 5655, "Hours</w>": 5656, "prices</w>": 5657, "occurs</w>": 5658, "Holmes</w>": 5659, "quills</w>": 5660, "Robert</w>": 5661, "Michael</w>": 5662, "Salem</w>": 5663, "minerals</w>": 5664, "affected</w>": 5665, "finaster": 5666, "succeed</w>": 5667, "influence</w>": 5668, "Sherl": 5669, "discussions</w>": 5670, "Toron": 5671, "detectives</w>": 5672, "Belarus</w>": 5673, "average": 5674, "123</w>": 5675, "chemicals</w>": 5676, "SpanishAll</w>": 5677, "UniversityBerke": 5678, "sent": 5679, "incan": 5680, "Recreational</w>": 5681, "Hawaii": 5682, "Tarpenning</w>": 5683, "Thermopy": 5684, "siblingsParents</w>": 5685, "UniversityHarvard": 5686, "pentagr": 5687, "Balzac</w>": 5688, "grandparents": 5689, "christ</w>": 5690, "shape</w>": 5691, "fully</w>": 5692, "krone</w>": 5693, "effor": 5694, "Bears</w>": 5695, "spinal</w>": 5696, "covered</w>": 5697, "totally</w>": 5698, "firmly</w>": 5699, "Gerald</w>": 5700, "disguis": 5701, "sibly</w>": 5702, "collects</w>": 5703, "Linear</w>": 5704, "intoler": 5705, "Lancet</w>": 5706, "Iraq": 5707, "abbrevi": 5708, "Amendment</w>": 5709, "Jurve": 5710, "Vampires</w>": 5711, "custo": 5712, "sustain": 5713, "Future</w>": 5714, "Unlawful</w>": 5715, "Pfiz": 5716, "kisses</w>": 5717, "Guns</w>": 5718, "seizure</w>": 5719, "HTT": 5720, "clubs</w>": 5721, "cousinYou</w>": 5722, "Bloody</w>": 5723, "Cardiff</w>": 5724, "pavement": 5725, "Montreal": 5726, "excessi": 5727, "CEOs</w>": 5728, "valueWe</w>": 5729, "eventually</w>": 5730, "inspiration</w>": 5731, "Dreaming</w>": 5732, "carsEveryone</w>": 5733, "subjectivePeople</w>": 5734, "copyrigh": 5735, "drugs": 5736, "sufficient</w>": 5737, "Ultraproduc": 5738, "spoken</w>": 5739, "exagger": 5740, "Lindenstra": 5741, "insulin</w>": 5742, "Michigan</w>": 5743, "cousinsParents</w>": 5744, "Persian</w>": 5745, "Rodham</w>": 5746, "Phoenix</w>": 5747, "UniversityPrinceton": 5748, "booksFiremen</w>": 5749, "Huntington</w>": 5750, "threatenedOstriches</w>": 5751, "UniversityYal": 5752, "significantly</w>": 5753, "HHHHH</w>": 5754, "Flavor</w>": 5755, "David</w>": 5756, "nosebleed</w>": 5757, "Stegosaur": 5758, "sameNothingWe</w>": 5759, "Portuguese</w>": 5760, "Sherlock</w>": 5761, "UniversityBerkeley": 5762, "sentenced</w>": 5763, "incandescent</w>": 5764, "Thermopyla": 5765, "UniversityHarvardOxford</w>": 5766, "pentagram</w>": 5767, "grandparentsSibl": 5768, "Iraqi</w>": 5769, "Jurvets": 5770, "Pfizer</w>": 5771, "HTTH": 5772, "pavementYou</w>": 5773, "copyrighted</w>": 5774, "UniversityPrincetonPrince": 5775, "UniversityYale": 5776, "Stegosaurus</w>": 5777, "UniversityBerkeleyCol": 5778, "grandparentsSiblings</w>": 5779, "HTTHT</w>": 5780, "UniversityPrincetonPrinceton</w>": 5781, "UniversityYaleYale</w>": 5782, "UniversityBerkeleyColumb": 5783, "UniversityBerkeleyColumbia</w>": 5784, "\u2019</w>": 5785, "W</w>": 5786, "IQ": 5787, "vs</w>": 5788, "Ry": 5789, "til": 5790, "Kan": 5791, "Lor": 5792, "has": 5793, "La</w>": 5794, "ga</w>": 5795, "'?</w>": 5796, "%?</w>": 5797, "Man</w>": 5798, "',</w>": 5799, "sou": 5800, "con</w>": 5801, "Non</w>": 5802, "Son</w>": 5803, "thu": 5804, "ng</w>": 5805, "Wil": 5806, "Sil": 5807, "That</w>": 5808, "Hare</w>": 5809, "Mit": 5810, "pet</w>": 5811, "hThe</w>": 5812, "obe": 5813, "Dr</w>": 5814, "rely</w>": 5815, "?\"</w>": 5816, "enThe</w>": 5817, "Lig": 5818, "Cat": 5819, "Hill</w>": 5820, "emo": 5821, "tab": 5822, "kit</w>": 5823, "Sol": 5824, "sun": 5825, "Sig": 5826, "Ish": 5827, "wan": 5828, "Dam": 5829, "erNo</w>": 5830, "fans</w>": 5831, "Me": 5832, "Low</w>": 5833, "Now</w>": 5834, "tex": 5835, "Vi": 5836, "arg": 5837, "roy": 5838, "cies</w>": 5839, "Gore</w>": 5840, "may": 5841, "Gul": 5842, "ani": 5843, "lip</w>": 5844, "coma": 5845, "esIf</w>": 5846, "Mas": 5847, "stone</w>": 5848, "Gil": 5849, "slan": 5850, "via</w>": 5851, "civi": 5852, "Amy</w>": 5853, "AL": 5854, "meet</w>": 5855, "icon": 5856, "Americas</w>": 5857, "ket</w>": 5858, "Dor": 5859, "Goth": 5860, "Name</w>": 5861, "los": 5862, "Vad": 5863, "actr": 5864, "chess</w>": 5865, "secon": 5866, "xim": 5867, "Sta": 5868, "nee": 5869, "iss": 5870, "ual": 5871, "NY": 5872, "sta": 5873, "ook": 5874, "apes</w>": 5875, "ands</w>": 5876, "pene": 5877, "separ": 5878, "speec": 5879, "Neo</w>": 5880, "ural</w>": 5881, "bag": 5882, "disp": 5883, "island</w>": 5884, "sear": 5885, "issu": 5886, "cash</w>": 5887, "li</w>": 5888, "Bid": 5889, "ayed</w>": 5890, "town</w>": 5891, "tured</w>": 5892, "toad": 5893, "Art</w>": 5894, "hear</w>": 5895, "hem": 5896, "heim": 5897, "acking</w>": 5898, "once": 5899, "fine</w>": 5900, "shine</w>": 5901, "song</w>": 5902, "pink</w>": 5903, "rents</w>": 5904, "Job": 5905, "ail": 5906, "Rel": 5907, "oblig": 5908, "elder": 5909, "Con": 5910, "hell</w>": 5911, "Gell</w>": 5912, "sight</w>": 5913, "Eve": 5914, "fire</w>": 5915, "fired</w>": 5916, "stYou</w>": 5917, "order</w>": 5918, "Back</w>": 5919, "Three</w>": 5920, "chAll</w>": 5921, "weath": 5922, "Franc": 5923, "anx": 5924, "monar": 5925, "tIt</w>": 5926, "forever": 5927, "comed": 5928, "tious</w>": 5929, "stron": 5930, "Fre": 5931, "ogen": 5932, "tour": 5933, "cour": 5934, "pro</w>": 5935, "press</w>": 5936, "landings</w>": 5937, "pot": 5938, "bric": 5939, "infl": 5940, "flat</w>": 5941, "flow</w>": 5942, "ports</w>": 5943, "curse</w>": 5944, "Rol": 5945, "Loc": 5946, "noc": 5947, "Edis": 5948, "ase</w>": 5949, "Any</w>": 5950, "originThere</w>": 5951, "boil": 5952, "Kans": 5953, "fati": 5954, "dial": 5955, "det": 5956, "credi": 5957, "syn": 5958, "Batt": 5959, "hate</w>": 5960, "moon": 5961, "canon": 5962, "creation</w>": 5963, "Don</w>": 5964, "consent</w>": 5965, "''</w>": 5966, "teach": 5967, "changing</w>": 5968, "Jean</w>": 5969, "van": 5970, "anymore</w>": 5971, "rule</w>": 5972, "Californians</w>": 5973, "traits</w>": 5974, "crime": 5975, "rigor": 5976, "hearing</w>": 5977, "presence</w>": 5978, "wash": 5979, "ancest": 5980, "locom": 5981, "send</w>": 5982, "yAll</w>": 5983, "Sa": 5984, "fats</w>": 5985, "salmon": 5986, "moved</w>": 5987, "four</w>": 5988, "Na": 5989, "zi</w>": 5990, "eNo</w>": 5991, "breath": 5992, "late": 5993, "ateYou</w>": 5994, "healthYes</w>": 5995, "Lines</w>": 5996, "hoa": 5997, "Cric": 5998, "jets</w>": 5999, "ride</w>": 6000, "intelligent": 6001, "codes</w>": 6002, "grades</w>": 6003, "gives</w>": 6004, "assas": 6005, "Rebe": 6006, "Reg": 6007, "Chil": 6008, "Pol": 6009, "risk": 6010, "Vent": 6011, "money": 6012, "county</w>": 6013, "vast</w>": 6014, "Buck</w>": 6015, "300</w>": 6016, "2000</w>": 6017, "confin": 6018, "Snow</w>": 6019, "Know</w>": 6020, "brack": 6021, "Tom": 6022, "states": 6023, "Kool</w>": 6024, "annex": 6025, "Report</w>": 6026, "warn</w>": 6027, "Awar": 6028, "tsIf</w>": 6029, "seed": 6030, "Joe</w>": 6031, "Boe": 6032, "purr": 6033, "hemp": 6034, "ground</w>": 6035, "ict</w>": 6036, "news</w>": 6037, "Flight</w>": 6038, "extraterrestrials</w>": 6039, "valu": 6040, "guit": 6041, "evil": 6042, "event</w>": 6043, "solo</w>": 6044, "airport</w>": 6045, "timeNo</w>": 6046, "timeK": 6047, "timeY": 6048, "blind": 6049, "demons</w>": 6050, "stori": 6051, "Their</w>": 6052, "sports</w>": 6053, "student</w>": 6054, "av": 6055, "interred</w>": 6056, "trig": 6057, "burning</w>": 6058, "pleas": 6059, "Apes</w>": 6060, "existNo</w>": 6061, "existI</w>": 6062, "capitali": 6063, "Marco": 6064, "Maria</w>": 6065, "Marr": 6066, "aud": 6067, "treas": 6068, "trick": 6069, "48</w>": 6070, "minis": 6071, "Not</w>": 6072, "Wau": 6073, "Cri": 6074, "join</w>": 6075, "trilli": 6076, "becomes</w>": 6077, "differently</w>": 6078, "ative": 6079, "demonstrate</w>": 6080, "resour": 6081, "stere": 6082, "Dir": 6083, "Trans": 6084, "Harry</w>": 6085, "relation</w>": 6086, "associ": 6087, "ducks</w>": 6088, "genThe</w>": 6089, "yours</w>": 6090, "alum</w>": 6091, "stadi": 6092, "block</w>": 6093, "plays</w>": 6094, "Scott": 6095, "94</w>": 6096, "86</w>": 6097, "medicine": 6098, "Big</w>": 6099, "hire</w>": 6100, "Hamp": 6101, "ground": 6102, "realYou</w>": 6103, "realOnly</w>": 6104, "experiment</w>": 6105, "upon</w>": 6106, "Proto</w>": 6107, "winters</w>": 6108, "governments</w>": 6109, "Cel": 6110, "Ed": 6111, "rising</w>": 6112, "multi</w>": 6113, "lying": 6114, "drama</w>": 6115, "blends</w>": 6116, "NeX": 6117, "typical</w>": 6118, "writes</w>": 6119, "unlikely</w>": 6120, "oldOnly</w>": 6121, "Worl": 6122, "tter": 6123, "machine": 6124, "edYes</w>": 6125, "odiac</w>": 6126, "religious</w>": 6127, "chaff</w>": 6128, "Prodig": 6129, "Pue": 6130, "reign</w>": 6131, "design</w>": 6132, "discover</w>": 6133, "Meth": 6134, "Ford</w>": 6135, "Seven</w>": 6136, "labe": 6137, "data": 6138, "datab": 6139, "datas": 6140, "Pogu": 6141, "Polish</w>": 6142, "title</w>": 6143, "bot": 6144, "Antar": 6145, "bum": 6146, "apped</w>": 6147, "stance</w>": 6148, "cult</w>": 6149, "reads</w>": 6150, "heads</w>": 6151, "development": 6152, "toss</w>": 6153, "CaliforniaYou</w>": 6154, "tionNo</w>": 6155, "Rodri": 6156, "Edel": 6157, "illu": 6158, "oldBarack</w>": 6159, "EnglandScotland</w>": 6160, "Monro": 6161, "entre": 6162, "Sex</w>": 6163, "Texas": 6164, "ctic</w>": 6165, "Cig": 6166, "vices</w>": 6167, "vict": 6168, "Pay": 6169, "Mel": 6170, "Island</w>": 6171, "visit</w>": 6172, "accessi": 6173, "humanThe</w>": 6174, "humanNo</w>": 6175, "humanI</w>": 6176, "build</w>": 6177, "possessi": 6178, "statement": 6179, "republic</w>": 6180, "Switzerland": 6181, "dYes</w>": 6182, "start</w>": 6183, "Drink</w>": 6184, "primed</w>": 6185, "atedNo</w>": 6186, "atedThe</w>": 6187, "breakthrough</w>": 6188, "Gregori": 6189, "objects</w>": 6190, "alNo</w>": 6191, "Eden</w>": 6192, "campa": 6193, "shorter</w>": 6194, "provide": 6195, "represent": 6196, "6000</w>": 6197, "balloon</w>": 6198, "myst": 6199, "through": 6200, "sweep</w>": 6201, "vamp": 6202, "involving</w>": 6203, "involved</w>": 6204, "graduated</w>": 6205, "EnglandNorthern</w>": 6206, "Med": 6207, "vin</w>": 6208, "recorded</w>": 6209, "Asian</w>": 6210, "induction</w>": 6211, "Bit": 6212, "online</w>": 6213, "Aniston": 6214, "evolve</w>": 6215, "Im": 6216, "Ages</w>": 6217, "Wee": 6218, "beef": 6219, "look</w>": 6220, "crook</w>": 6221, "dieYou</w>": 6222, "Stan": 6223, "UFOMany</w>": 6224, "raising</w>": 6225, "illusi": 6226, "friend": 6227, "liar": 6228, "ersThe</w>": 6229, "domin": 6230, "shortest</w>": 6231, "later</w>": 6232, "Water</w>": 6233, "Coaches</w>": 6234, "talented</w>": 6235, "indigen": 6236, "unus": 6237, "imaging</w>": 6238, "suppor": 6239, "moderate</w>": 6240, "salesman</w>": 6241, "targe": 6242, "archae": 6243, "SpainPeople</w>": 6244, "Queens</w>": 6245, "ousI</w>": 6246, "Singapore": 6247, "unambigu": 6248, "doub": 6249, "spring</w>": 6250, "Dream</w>": 6251, "crac": 6252, "perfec": 6253, "Former</w>": 6254, "melt": 6255, "AngelesThe</w>": 6256, "happily</w>": 6257, "Swedi": 6258, "mi": 6259, "flyNo</w>": 6260, "disorder": 6261, "Geni": 6262, "Internet": 6263, "approved</w>": 6264, "LatinAll</w>": 6265, "attacksThe</w>": 6266, "landscapes</w>": 6267, "cuisine": 6268, "Luxembourg": 6269, "dThere</w>": 6270, "Orle": 6271, "defen": 6272, "impres": 6273, "status</w>": 6274, "aliens": 6275, "cens": 6276, "Chie": 6277, "weapon": 6278, "dragon": 6279, "Norway": 6280, "familyThe</w>": 6281, "penth": 6282, "ChristianYes</w>": 6283, "Mirror</w>": 6284, "deeply</w>": 6285, "kidsI</w>": 6286, "composition</w>": 6287, "historically</w>": 6288, "subjective</w>": 6289, "Hispanic</w>": 6290, "hospitals</w>": 6291, "attempting</w>": 6292, "00": 6293, "193": 6294, "Gu": 6295, "keys</w>": 6296, "Chest": 6297, "strong": 6298, "asked</w>": 6299, "tedIf</w>": 6300, "juana</w>": 6301, "flyYes</w>": 6302, "joint</w>": 6303, "Sau": 6304, "AustraliaThe</w>": 6305, "suspen": 6306, "definite</w>": 6307, "vaccination</w>": 6308, "priority</w>": 6309, "Lights</w>": 6310, "KingdomIt</w>": 6311, "avoid</w>": 6312, "LSD": 6313, "Build": 6314, "listeners</w>": 6315, "tics": 6316, "clean": 6317, "militi": 6318, "truthers</w>": 6319, "cro": 6320, "Ass": 6321, "driv": 6322, "swimmingYou</w>": 6323, "suffer</w>": 6324, "welsh</w>": 6325, "highs</w>": 6326, "Prov": 6327, "Germans": 6328, "mankind</w>": 6329, "Belgi": 6330, "flagNothing</w>": 6331, "tourists</w>": 6332, "tourism": 6333, "CityThe</w>": 6334, "CityNew</w>": 6335, "IndiaPeople</w>": 6336, "replaced</w>": 6337, "alism": 6338, "yArea</w>": 6339, "publication</w>": 6340, "Republic": 6341, "uncertain</w>": 6342, "Nickn": 6343, "poisoned</w>": 6344, "poisoning</w>": 6345, "PhysicsRichard</w>": 6346, "voodoo</w>": 6347, "futureThe</w>": 6348, "archaeologists</w>": 6349, "princ": 6350, "chargesYou</w>": 6351, "Based</w>": 6352, "Deco</w>": 6353, "extinc": 6354, "blondes</w>": 6355, "Actor</w>": 6356, "blurb</w>": 6357, "polymath</w>": 6358, "psychopath": 6359, "necessary</w>": 6360, "modeled</w>": 6361, "broomsticks</w>": 6362, "ClintonHer</w>": 6363, "varied</w>": 6364, "impossible</w>": 6365, "achieved</w>": 6366, "Theresa</w>": 6367, "ses": 6368, "tions": 6369, "professional": 6370, "mouth": 6371, "obser": 6372, "CO": 6373, "leap</w>": 6374, "drug</w>": 6375, "church</w>": 6376, "paying</w>": 6377, "activ": 6378, "matadors</w>": 6379, "establish": 6380, "steaks</w>": 6381, "educa": 6382, "participants</w>": 6383, "artifac": 6384, "universe": 6385, "edNo</w>": 6386, "karma</w>": 6387, "Despit": 6388, "extraterrestrialThere</w>": 6389, "extraterrestrials": 6390, "chartreuse</w>": 6391, "corrup": 6392, "reduces</w>": 6393, "Ship</w>": 6394, "rainbows</w>": 6395, "Ele": 6396, "contribute</w>": 6397, "antiperspir": 6398, "cowork": 6399, "distinc": 6400, "chameleons</w>": 6401, "ostriches</w>": 6402, "Ostriches</w>": 6403, "esHumans</w>": 6404, "soft</w>": 6405, "myth": 6406, "myth</w>": 6407, "lob": 6408, "Drive": 6409, "leNo</w>": 6410, "ength</w>": 6411, "hter</w>": 6412, "figure</w>": 6413, "Cambo": 6414, "becoming</w>": 6415, "Ill": 6416, "atives</w>": 6417, "EURussia</w>": 6418, "EUTurkey</w>": 6419, "regulate</w>": 6420, "Finland": 6421, "aligned</w>": 6422, "headaches</w>": 6423, "orange</w>": 6424, "coloniz": 6425, "coloni": 6426, "phone": 6427, "everyone": 6428, "snakes</w>": 6429, "mirror": 6430, "Notable</w>": 6431, "notable</w>": 6432, "dreaming</w>": 6433, "relatively</w>": 6434, "character": 6435, "memories</w>": 6436, "RussiaPeople</w>": 6437, "RussiaBulgaria</w>": 6438, "Songs</w>": 6439, "passports": 6440, "foreigner</w>": 6441, "Brazil": 6442, "female</w>": 6443, "yearsDeepMind</w>": 6444, "diamonds</w>": 6445, "microwa": 6446, "Goldfish</w>": 6447, "porcupines</w>": 6448, "ArithmeticThe</w>": 6449, "ArithmeticIt</w>": 6450, "Yousafzai": 6451, "vomitoriums</w>": 6452, "Calculusthe</w>": 6453, "CalculusIt</w>": 6454, "CalculusArithmetic": 6455, "RE": 6456, "Salt</w>": 6457, "free": 6458, "oilThere</w>": 6459, "remove</w>": 6460, "removed</w>": 6461, "weapons": 6462, "choking</w>": 6463, "chocol": 6464, "cooler": 6465, "intelligenceNo</w>": 6466, "growth": 6467, "pairs</w>": 6468, "Christop": 6469, "punc": 6470, "unclear</w>": 6471, "2001</w>": 6472, "2008</w>": 6473, "crapp": 6474, "skills</w>": 6475, "firemen</w>": 6476, "fireplace</w>": 6477, "spiritsIf</w>": 6478, "Her": 6479, "treatment</w>": 6480, "privil": 6481, "Euro</w>": 6482, "Taip": 6483, "autismThe</w>": 6484, "Pre": 6485, "acronymNothing</w>": 6486, "ingBroomsticks</w>": 6487, "1772</w>": 6488, "daily</w>": 6489, "Sander": 6490, "questionThe</w>": 6491, "xmas</w>": 6492, "Christmas</w>": 6493, "entrances</w>": 6494, "trialYou</w>": 6495, "jump</w>": 6496, "Soci": 6497, "lion</w>": 6498, "lepro": 6499, "Strikes</w>": 6500, "continental</w>": 6501, "humansBir": 6502, "tionYes</w>": 6503, "traged": 6504, "proo": 6505, "Dwar": 6506, "MexicansIn</w>": 6507, "scholars</w>": 6508, "Psychics</w>": 6509, "vedNo</w>": 6510, "Quebe": 6511, "decreased</w>": 6512, "Allied</w>": 6513, "applied</w>": 6514, "generate</w>": 6515, "househ": 6516, "psychological</w>": 6517, "Sett": 6518, "ettes": 6519, "Legally</w>": 6520, "LondonHong</w>": 6521, "prominent</w>": 6522, "significant</w>": 6523, "ZealandManhunt</w>": 6524, "dy": 6525, "ees</w>": 6526, "Danz": 6527, "Danish</w>": 6528, "fatal</w>": 6529, "Val": 6530, "shade</w>": 6531, "Brad</w>": 6532, "Living": 6533, "readPeople</w>": 6534, "deadPeople</w>": 6535, "falls</w>": 6536, "process</w>": 6537, "process": 6538, "Brilliant</w>": 6539, "Pist": 6540, "suffered</w>": 6541, "marriages</w>": 6542, "EurosYou</w>": 6543, "illness": 6544, "Roc": 6545, "bodyNo</w>": 6546, "calend": 6547, "Hau": 6548, "bank": 6549, "Italy</w>": 6550, "novels</w>": 6551, "independent</w>": 6552, "oxy": 6553, "Ply": 6554, "Democr": 6555, "Democra": 6556, "offensive</w>": 6557, "Garden</w>": 6558, "sleepwalker": 6559, "ancestry</w>": 6560, "finances": 6561, "alcoholYou</w>": 6562, "replicateNo</w>": 6563, "Iceland</w>": 6564, "Iceland": 6565, "flatlineNo</w>": 6566, "flatlineYes</w>": 6567, "battery</w>": 6568, "batteries</w>": 6569, "Alaska</w>": 6570, "Businessman</w>": 6571, "Businesses</w>": 6572, "schizophrenics</w>": 6573, "Schizophrenics</w>": 6574, "traitsPeople</w>": 6575, "traitsLibras</w>": 6576, "ghostsGhosts</w>": 6577, "immigrant</w>": 6578, "immigrants</w>": 6579, "Holocaust</w>": 6580, "timeNowhereThere</w>": 6581, "fraud</w>": 6582, "stomach": 6583, "stopp": 6584, "towering</w>": 6585, "Samuel": 6586, "nowIt</w>": 6587, "migrain": 6588, "tunn": 6589, "independent": 6590, "humansPar": 6591, "allegations</w>": 6592, "former": 6593, "At": 6594, "lakeYou</w>": 6595, "founder</w>": 6596, "interrog": 6597, "Students</w>": 6598, "16": 6599, "symbo": 6600, "destroy": 6601, "Mandar": 6602, "populated</w>": 6603, "downsides</w>": 6604, "buckskin</w>": 6605, "contracted</w>": 6606, "sourc": 6607, "Pitt": 6608, "wron": 6609, "minutes</w>": 6610, "venomous</w>": 6611, "Wizard</w>": 6612, "baseball</w>": 6613, "obst": 6614, "Clar": 6615, "approach</w>": 6616, "hug": 6617, "Goet": 6618, "primingThe</w>": 6619, "uted</w>": 6620, "prosecut": 6621, "tells</w>": 6622, "memory": 6623, "slightly</w>": 6624, "intelligenceI</w>": 6625, "swimmingTiger</w>": 6626, "summon</w>": 6627, "communicate</w>": 6628, "networkI</w>": 6629, "Joseph": 6630, "transported</w>": 6631, "terrorism</w>": 6632, "Madoff</w>": 6633, "prohibited</w>": 6634, "chimpanzee</w>": 6635, "engineering</w>": 6636, "bannedIn</w>": 6637, "citizens": 6638, "temperature</w>": 6639, "precognition</w>": 6640, "Qaeda</w>": 6641, "Kentucky</w>": 6642, "cryptid</w>": 6643, "homeopath": 6644, "breakfastYes</w>": 6645, "forbidden</w>": 6646, "conspiracy</w>": 6647, "EconomicsK": 6648, "Ouj": 6649, "analy": 6650, "Ganor": 6651, "Darth</w>": 6652, "third</w>": 6653, "upbr": 6654, "Pan": 6655, "collap": 6656, "Simple": 6657, "released</w>": 6658, "pil": 6659, "inf": 6660, "lik": 6661, "About</w>": 6662, "community</w>": 6663, "alumni": 6664, "Should</w>": 6665, "evolution</w>": 6666, "Eostr": 6667, "Algebra": 6668, "spect": 6669, "league</w>": 6670, "suedYou</w>": 6671, "grud": 6672, "patients</w>": 6673, "painted</w>": 6674, "Rous": 6675, "float</w>": 6676, "System</w>": 6677, "examples</w>": 6678, "Gasper": 6679, "pesticidesNo</w>": 6680, "assumption</w>": 6681, "Auckland</w>": 6682, "surr": 6683, "Bohr</w>": 6684, "Rums": 6685, "Rapha": 6686, "Extreme</w>": 6687, "Founded</w>": 6688, "optim": 6689, "William": 6690, "senseI</w>": 6691, "kinesthetic</w>": 6692, "unequiv": 6693, "Marian": 6694, "officially</w>": 6695, "Motors": 6696, "billionair": 6697, "politician</w>": 6698, "energyScientists</w>": 6699, "ArabicAll</w>": 6700, "Hungar": 6701, "massac": 6702, "Mission</w>": 6703, "barefootYou</w>": 6704, "rainforest": 6705, "determines</w>": 6706, "facilities</w>": 6707, "requirement": 6708, "Records</w>": 6709, "Phoenix": 6710, "divorce</w>": 6711, "conceived</w>": 6712, "Kec": 6713, "declinedO": 6714, "CityLondonLos</w>": 6715, "Cambridge</w>": 6716, "Cunning": 6717, "territories</w>": 6718, "conservative</w>": 6719, "scienceThe</w>": 6720, "Executive</w>": 6721, "finasteride</w>": 6722, "AngelesParis": 6723, "averageNo</w>": 6724, "Holocau": 6725, "discovered</w>": 6726, "disguised</w>": 6727, "abbreviation</w>": 6728, "custody</w>": 6729, "Lindenstraus": 6730, "lifeSherlock</w>": 6731, "Thermopylae</w>": 6732, "IQ</w>": 6733, "hasn</w>": 6734, "thug</w>": 6735, "Silic": 6736, "obey</w>": 6737, "Liga</w>": 6738, "Solar</w>": 6739, "Sigm": 6740, "argum": 6741, "royal</w>": 6742, "mayor</w>": 6743, "Gulf</w>": 6744, "Mason</w>": 6745, "slang</w>": 6746, "civil</w>": 6747, "ALS</w>": 6748, "iconic</w>": 6749, "Doroth": 6750, "Gothic</w>": 6751, "Vader</w>": 6752, "actress</w>": 6753, "NYU</w>": 6754, "penetr": 6755, "speech</w>": 6756, "Biden</w>": 6757, "hemp</w>": 6758, "heimer</w>": 6759, "Related</w>": 6760, "elderly</w>": 6761, "Francis</w>": 6762, "anxi": 6763, "monarch</w>": 6764, "comedy</w>": 6765, "toured</w>": 6766, "bricks</w>": 6767, "Locke</w>": 6768, "Kansas</w>": 6769, "fatigu": 6770, "credit</w>": 6771, "Battle</w>": 6772, "canonis": 6773, "washing</w>": 6774, "locomo": 6775, "assassin": 6776, "Rebel": 6777, "Regul": 6778, "Children</w>": 6779, "Venture</w>": 6780, "confined</w>": 6781, "bracket</w>": 6782, "annexed</w>": 6783, "Awaren": 6784, "seedsThe</w>": 6785, "purrs</w>": 6786, "valuable</w>": 6787, "guitar": 6788, "storied</w>": 6789, "pleasant</w>": 6790, "capitalist</w>": 6791, "Marcos</w>": 6792, "Marrying</w>": 6793, "audit": 6794, "miniscu": 6795, "resources</w>": 6796, "stereo": 6797, "Dirac</w>": 6798, "association</w>": 6799, "NeXT</w>": 6800, "Worlds</w>": 6801, "Prodigy</w>": 6802, "Method</w>": 6803, "labeled</w>": 6804, "databas": 6805, "Pogues</w>": 6806, "bottle</w>": 6807, "bumped</w>": 6808, "Rodrigu": 6809, "illustri": 6810, "Monroe</w>": 6811, "entrepr": 6812, "Cigar": 6813, "victory</w>": 6814, "Payne</w>": 6815, "accessible</w>": 6816, "possession</w>": 6817, "Gregorian</w>": 6818, "campaign</w>": 6819, "mystery</w>": 6820, "vampire": 6821, "Medit": 6822, "Bitcoin</w>": 6823, "Important</w>": 6824, "Weems</w>": 6825, "Stanford</w>": 6826, "indigenous</w>": 6827, "unusual</w>": 6828, "supported</w>": 6829, "archaeology</w>": 6830, "unambiguously</w>": 6831, "doubt</w>": 6832, "cracyThe</w>": 6833, "perfectly</w>": 6834, "Swedish</w>": 6835, "mistr": 6836, "Genius</w>": 6837, "cuisineEveryone</w>": 6838, "Orleans</w>": 6839, "impressive</w>": 6840, "censors</w>": 6841, "Chief</w>": 6842, "penthouses</w>": 6843, "007</w>": 6844, "1937</w>": 6845, "Chestn": 6846, "Saudi</w>": 6847, "suspended</w>": 6848, "militia</w>": 6849, "Associated</w>": 6850, "drivingYou</w>": 6851, "Province": 6852, "Belgium</w>": 6853, "Republicans</w>": 6854, "Nicknamed</w>": 6855, "princess</w>": 6856, "observed</w>": 6857, "COVI": 6858, "educational</w>": 6859, "universeOnly</w>": 6860, "Despite</w>": 6861, "Elephants</w>": 6862, "antiperspirant</w>": 6863, "distinctive</w>": 6864, "DriveIn</w>": 6865, "Cambodia</w>": 6866, "Illum": 6867, "mirrorIf</w>": 6868, "characteris": 6869, "microwave": 6870, "CalculusArithmeticthe</w>": 6871, "REM</w>": 6872, "crappa</w>": 6873, "privile": 6874, "Taiping</w>": 6875, "Sanders": 6876, "Socied": 6877, "leprosy</w>": 6878, "humansBirds": 6879, "tragedy</w>": 6880, "proofs</w>": 6881, "Dwarfs</w>": 6882, "Quebec</w>": 6883, "household</w>": 6884, "Settled</w>": 6885, "Danzi": 6886, "Valley</w>": 6887, "Livingston</w>": 6888, "Pistols</w>": 6889, "Rocke": 6890, "calendar</w>": 6891, "Haupt": 6892, "bankru": 6893, "Plymouth</w>": 6894, "Democratic</w>": 6895, "stopping</w>": 6896, "Samuelson</w>": 6897, "tunnels</w>": 6898, "humansParrots</w>": 6899, "formerly</w>": 6900, "1681</w>": 6901, "symbol</w>": 6902, "destroyed</w>": 6903, "wrongThe</w>": 6904, "obstacles</w>": 6905, "Clarkson</w>": 6906, "hugely</w>": 6907, "prosecutor</w>": 6908, "Josephson</w>": 6909, "Oujia</w>": 6910, "upbringing</w>": 6911, "Pando": 6912, "Simplex</w>": 6913, "pilots</w>": 6914, "infection</w>": 6915, "likely": 6916, "alumni</w>": 6917, "Eostre</w>": 6918, "AlgebraAlge": 6919, "spectac": 6920, "grudging": 6921, "Rousse": 6922, "surrounding</w>": 6923, "Raphael": 6924, "optimization</w>": 6925, "Williamson</w>": 6926, "unequivoc": 6927, "Marianne</w>": 6928, "billionaire</w>": 6929, "Hungarians</w>": 6930, "massacre</w>": 6931, "rainforestsIt</w>": 6932, "Kecks": 6933, "declinedOver</w>": 6934, "Cunningham</w>": 6935, "AngelesParisToron": 6936, "Holocaust": 6937, "Lindenstrauss": 6938, "Silicon</w>": 6939, "Sigmun": 6940, "Dorothy</w>": 6941, "penetrate</w>": 6942, "canonisation</w>": 6943, "Regulars</w>": 6944, "Awareness</w>": 6945, "guitarist</w>": 6946, "auditory</w>": 6947, "miniscule</w>": 6948, "stereotyp": 6949, "Rodrigue": 6950, "illustrious</w>": 6951, "entreprene": 6952, "Cigarettes</w>": 6953, "Mediter": 6954, "mistrans": 6955, "Chestnut</w>": 6956, "COVID</w>": 6957, "Illumin": 6958, "characteristic</w>": 6959, "microwaveYou</w>": 6960, "Sociedad": 6961, "Danzig</w>": 6962, "Rockef": 6963, "Hauptman": 6964, "bankrupt": 6965, "Pandoja</w>": 6966, "AlgebraAlgebr": 6967, "spectacular</w>": 6968, "grudgingly</w>": 6969, "Rousseau</w>": 6970, "unequivocally</w>": 6971, "Kecksburg</w>": 6972, "AngelesParisToronto": 6973, "HolocaustAnti": 6974, "Sigmund</w>": 6975, "stereotypes</w>": 6976, "Rodriguez</w>": 6977, "entrepreneur</w>": 6978, "Mediterran": 6979, "mistranslated</w>": 6980, "Illuminati": 6981, "Rockefell": 6982, "Hauptmann</w>": 6983, "bankruptcy": 6984, "AlgebraAlgebra</w>": 6985, "AngelesParisTorontoSy": 6986, "HolocaustAntichrist</w>": 6987, "Mediterrane": 6988, "Illuminati</w>": 6989, "Rockefellers</w>": 6990, "bankruptcyFor</w>": 6991, "AngelesParisTorontoSyd": 6992, "Mediterranean</w>": 6993, "AngelesParisTorontoSydney": 6994, "AngelesParisTorontoSydneyChicago": 6995, "AngelesParisTorontoSydneyChicagoSan</w>": 6996, "$</w>": 6997, "Be</w>": 6998, "St</w>": 6999, "Hon": 7000, "Sk": 7001, "sin</w>": 7002, "Cer": 7003, "dan</w>": 7004, "\",</w>": 7005, "oy</w>": 7006, "Pl": 7007, "onto</w>": 7008, "rand</w>": 7009, "hand</w>": 7010, "arri": 7011, "ive</w>": 7012, "Sit": 7013, "lean</w>": 7014, "Ben": 7015, "Jam": 7016, "opo": 7017, "II": 7018, "JF": 7019, "eat": 7020, "ator</w>": 7021, "Sha": 7022, "ured</w>": 7023, ".\"</w>": 7024, "Las</w>": 7025, "Ten": 7026, "zy</w>": 7027, "Pla": 7028, "Bab": 7029, "cab": 7030, "aging</w>": 7031, "yth": 7032, "far</w>": 7033, "unti": 7034, "stun": 7035, "Lun": 7036, "tall</w>": 7037, "call</w>": 7038, "itNo</w>": 7039, "swans</w>": 7040, "sex": 7041, "theat": 7042, "mom": 7043, "Anno</w>": 7044, "Fro": 7045, "cape": 7046, "ortion": 7047, "Mur": 7048, "OC": 7049, "wra": 7050, "him": 7051, "Pas": 7052, "amoun": 7053, "ca</w>": 7054, "abuse</w>": 7055, "yet</w>": 7056, "inIt</w>": 7057, "nos": 7058, "bad": 7059, "Jer": 7060, "rise": 7061, "neon</w>": 7062, "adul": 7063, "sion": 7064, "trial</w>": 7065, "trip</w>": 7066, "33": 7067, "mas": 7068, "tas": 7069, "bro": 7070, "Che": 7071, "erate</w>": 7072, "Nev": 7073, "spy</w>": 7074, "spra": 7075, "sph": 7076, "Ly": 7077, "phon": 7078, "intes": 7079, "Du": 7080, "spid": 7081, "say": 7082, "Day": 7083, "Use</w>": 7084, "fever</w>": 7085, "row</w>": 7086, "umThe</w>": 7087, "ike": 7088, "fuc": 7089, "asking</w>": 7090, "speaking</w>": 7091, "oce": 7092, "shoo": 7093, "ange": 7094, "caff": 7095, "spine</w>": 7096, "sink</w>": 7097, "job": 7098, "FD": 7099, "CI": 7100, "forc": 7101, "repe": 7102, "estim": 7103, "Af": 7104, "sell</w>": 7105, "eight</w>": 7106, "alive": 7107, "older</w>": 7108, "Under</w>": 7109, "overall": 7110, "cards</w>": 7111, "UKYou</w>": 7112, "UKThere</w>": 7113, "itAll</w>": 7114, "erAll</w>": 7115, "humor": 7116, "tea": 7117, "distr": 7118, "Franco": 7119, "lif": 7120, "tern": 7121, "monit": 7122, "Doug": 7123, "UKAmericans</w>": 7124, "thood</w>": 7125, "Pac": 7126, "fiction</w>": 7127, "grown</w>": 7128, "race</w>": 7129, "ude</w>": 7130, "Brian</w>": 7131, "yearIf</w>": 7132, "Jun": 7133, "estIf</w>": 7134, "child": 7135, "curable</w>": 7136, "wel": 7137, "Soc": 7138, "apoc": 7139, "fes": 7140, "active</w>": 7141, "original": 7142, "boat</w>": 7143, "Ven": 7144, "concre": 7145, "crem": 7146, "cred": 7147, "excre": 7148, "ret": 7149, "Aug": 7150, "Lear</w>": 7151, "commentYou</w>": 7152, "calling</w>": 7153, "vibr": 7154, "changes</w>": 7155, "gras": 7156, "yA</w>": 7157, "panic</w>": 7158, "panic": 7159, "pne": 7160, "mice</w>": 7161, "preci": 7162, "edIf</w>": 7163, "cure": 7164, "desig": 7165, "Sand": 7166, "stand": 7167, "exits</w>": 7168, "flap</w>": 7169, "heart": 7170, "Australian</w>": 7171, "UKFrance</w>": 7172, "Vanc": 7173, "legend</w>": 7174, "blend</w>": 7175, "beats</w>": 7176, "vit": 7177, "salts</w>": 7178, "salad": 7179, "obtain</w>": 7180, "consumers</w>": 7181, "Mars</w>": 7182, "therap": 7183, "brew": 7184, "200</w>": 7185, "ather": 7186, "unproven</w>": 7187, "UFOThe</w>": 7188, "manThe</w>": 7189, "manag": 7190, "asle": 7191, "hu": 7192, "outnumber</w>": 7193, "interact</w>": 7194, "interpre": 7195, "wn</w>": 7196, "deci": 7197, "code</w>": 7198, "indic": 7199, "Dur": 7200, "Rem": 7201, "ik": 7202, "crash</w>": 7203, "Russian</w>": 7204, "Lear": 7205, "Ts": 7206, "question": 7207, "Dru": 7208, "trou": 7209, "fail": 7210, "expos": 7211, "mim": 7212, "Bre": 7213, "bias</w>": 7214, "biog": 7215, "tious": 7216, "buck</w>": 7217, "suck</w>": 7218, "difference</w>": 7219, "crow": 7220, "EuropeThe</w>": 7221, "Super": 7222, "vary</w>": 7223, "vol": 7224, "Norwe": 7225, "miles</w>": 7226, "milk</w>": 7227, "milk": 7228, "black": 7229, "rup": 7230, "rib</w>": 7231, "carb</w>": 7232, "smell</w>": 7233, "tI</w>": 7234, "import</w>": 7235, "scen": 7236, "scit": 7237, "entsThe</w>": 7238, "inThe</w>": 7239, "Siri": 7240, "psychics</w>": 7241, "icsThe</w>": 7242, "Boy</w>": 7243, "link": 7244, "shr": 7245, "None</w>": 7246, "found</w>": 7247, "List</w>": 7248, "sign": 7249, "help": 7250, "media": 7251, "timeYes</w>": 7252, "timeL": 7253, "Korea": 7254, "Cross</w>": 7255, "boil</w>": 7256, "fail</w>": 7257, "Romul": 7258, "drops</w>": 7259, "flops</w>": 7260, "students</w>": 7261, "studying</w>": 7262, "eel</w>": 7263, "Raf": 7264, "burned</w>": 7265, "yYou</w>": 7266, "Marqu": 7267, "Marbo": 7268, "kThe</w>": 7269, "lab": 7270, "aspec": 7271, "defy</w>": 7272, "USThere</w>": 7273, "esA</w>": 7274, "lawsNo</w>": 7275, "theore": 7276, "chair": 7277, "knowI</w>": 7278, "1961</w>": 7279, "28</w>": 7280, "ouls</w>": 7281, "areas</w>": 7282, "Barbe</w>": 7283, "injec": 7284, "placent": 7285, "places": 7286, "FranceIt</w>": 7287, "FranceThere</w>": 7288, "FrancePeople</w>": 7289, "FranceAmericans</w>": 7290, "FranceFrance</w>": 7291, "greater</w>": 7292, "greatly</w>": 7293, "Bei": 7294, "eleph": 7295, "ects</w>": 7296, "missing": 7297, "personI</w>": 7298, "uts": 7299, "art": 7300, "ustin</w>": 7301, "cord</w>": 7302, "refer</w>": 7303, "Harve": 7304, "fingers</w>": 7305, "eI</w>": 7306, "visible</w>": 7307, "ips</w>": 7308, "knock</w>": 7309, "playOnly</w>": 7310, "EuropeRussia</w>": 7311, "StatesThere</w>": 7312, "Ga": 7313, "Scotti": 7314, "96</w>": 7315, "Natur": 7316, "atures</w>": 7317, "throw</w>": 7318, "realThere</w>": 7319, "Save</w>": 7320, "still": 7321, "spell": 7322, "immun": 7323, "positions</w>": 7324, "positive": 7325, "upThe</w>": 7326, "upYes</w>": 7327, "UKYour</w>": 7328, "true": 7329, "FranceYour</w>": 7330, "hoursYes</w>": 7331, "level": 7332, "CanadaCanada</w>": 7333, "CanadaYour</w>": 7334, "developing</w>": 7335, "Nel": 7336, "hn": 7337, "Heal": 7338, "kick</w>": 7339, "ityNo</w>": 7340, "fici": 7341, "Ale": 7342, "commentThis</w>": 7343, "bun": 7344, "lyIf</w>": 7345, "lyNo</w>": 7346, "voters</w>": 7347, "impal": 7348, "safest</w>": 7349, "EnglandThe</w>": 7350, "EnglandYou</w>": 7351, "Kre": 7352, "umbil": 7353, "musical</w>": 7354, "electr": 7355, "regar": 7356, "themIf</w>": 7357, "violent": 7358, "specify</w>": 7359, "prefer</w>": 7360, "ghost</w>": 7361, "lin": 7362, "StatesIndia</w>": 7363, "Nep": 7364, "onThere</w>": 7365, "teeth": 7366, "Carli": 7367, "gunIn</w>": 7368, "eral</w>": 7369, "workYou</w>": 7370, "fluIf</w>": 7371, "religions</w>": 7372, "inher": 7373, "igner</w>": 7374, "feign</w>": 7375, "cag": 7376, "dos": 7377, "theori": 7378, "propag": 7379, "Cod</w>": 7380, "Force</w>": 7381, "Forn": 7382, "pul": 7383, "Pole": 7384, "Pot": 7385, "laug": 7386, "diffic": 7387, "Spart": 7388, "lacks</w>": 7389, "groups</w>": 7390, "CaliforniaIn</w>": 7391, "CaliforniaYour</w>": 7392, "sleeping</w>": 7393, "ingIf</w>": 7394, "sleepPeople</w>": 7395, "luckThe</w>": 7396, "luckYou</w>": 7397, "prohi": 7398, "prior</w>": 7399, "cows</w>": 7400, "shows</w>": 7401, "grows</w>": 7402, "emit</w>": 7403, "emer": 7404, "strikes</w>": 7405, "flatThe</w>": 7406, "flatA</w>": 7407, "perception</w>": 7408, "rio": 7409, "aBarack</w>": 7410, "itScotland</w>": 7411, "sensi": 7412, "Few</w>": 7413, "catIf</w>": 7414, "rom": 7415, "stimul": 7416, "beauti": 7417, "presidents</w>": 7418, "glove</w>": 7419, "Greeks</w>": 7420, "Port</w>": 7421, "Hou": 7422, "moonThe</w>": 7423, "Lond": 7424, "Wool": 7425, "humanity</w>": 7426, "humanIt</w>": 7427, "building</w>": 7428, "passport</w>": 7429, "originRoswell</w>": 7430, "Act</w>": 7431, "Marie</w>": 7432, "ship": 7433, "fashi": 7434, "wealth": 7435, "declar": 7436, "timeFe": 7437, "atedIf</w>": 7438, "describ": 7439, "breakIf</w>": 7440, "producing</w>": 7441, "alYes</w>": 7442, "whal": 7443, "1920</w>": 7444, "humansThere</w>": 7445, "humansOnly</w>": 7446, "represents</w>": 7447, "represented</w>": 7448, "fight": 7449, "overnight": 7450, "UniversityThe</w>": 7451, "aca": 7452, "bulb": 7453, "upset</w>": 7454, "radia": 7455, "cyan": 7456, "putting</w>": 7457, "circu": 7458, "though": 7459, "sweet": 7460, "sweep": 7461, "prevents</w>": 7462, "breathe</w>": 7463, "gradually</w>": 7464, "snowPhiladelphia</w>": 7465, "snowier</w>": 7466, "itNorthern</w>": 7467, "Uran": 7468, "Leif</w>": 7469, "selling</w>": 7470, "colli": 7471, "week</w>": 7472, "countryAmericans</w>": 7473, "angered</w>": 7474, "ladder": 7475, "countriesThere</w>": 7476, "countriesAmericans</w>": 7477, "221</w>": 7478, "Tali": 7479, "atrop": 7480, "ownThe</w>": 7481, "drown": 7482, "donors</w>": 7483, "rhy": 7484, "Asia": 7485, "PrizeNo</w>": 7486, "PrizeYes</w>": 7487, "JapanThe</w>": 7488, "JapanThere</w>": 7489, "JapanAmericans</w>": 7490, "completion</w>": 7491, "1918</w>": 7492, "chopped</w>": 7493, "EuropeTurkey</w>": 7494, "commentScientists</w>": 7495, "Milton</w>": 7496, "Milne</w>": 7497, "talk": 7498, "Hindi": 7499, "Buying</w>": 7500, "longest</w>": 7501, "imagin": 7502, "virgin": 7503, "guapp": 7504, "factu": 7505, "Cra": 7506, "ourselves</w>": 7507, "ters": 7508, "CaliforniaWalt</w>": 7509, "unusually</w>": 7510, "EnglishYes</w>": 7511, "underworld": 7512, "earthworm": 7513, "earthworms</w>": 7514, "Alternative</w>": 7515, "ambiguous": 7516, "bak": 7517, "correc": 7518, "elit": 7519, "wish": 7520, "orn": 7521, "noti": 7522, "Bonds</w>": 7523, "Spot</w>": 7524, "tNo</w>": 7525, "techni": 7526, "chlor": 7527, "smart</w>": 7528, "identit": 7529, "energyNo</w>": 7530, "Countr": 7531, "MexicoAmerica</w>": 7532, "antibi": 7533, "ines": 7534, "networks</w>": 7535, "attackYes</w>": 7536, "ility</w>": 7537, "tice": 7538, "ticLibras</w>": 7539, "Cres": 7540, "hang</w>": 7541, "MacAr": 7542, "hunting</w>": 7543, "debt": 7544, "extras": 7545, "dragon</w>": 7546, "lifeThe</w>": 7547, "lifeA</w>": 7548, "Hares</w>": 7549, "lifeOur</w>": 7550, "flawed</w>": 7551, "collected</w>": 7552, "Swiss</w>": 7553, "ChristianNo</w>": 7554, "languageOnly</w>": 7555, "historical</w>": 7556, "beneficial</w>": 7557, "pefruit</w>": 7558, "attemped</w>": 7559, "67</w>": 7560, "boys</w>": 7561, "Tong": 7562, "ocked</w>": 7563, "norm": 7564, "Crow": 7565, "knew</w>": 7566, "spaces": 7567, "space": 7568, "cloudly</w>": 7569, "pover": 7570, "streets</w>": 7571, "level</w>": 7572, "Anto": 7573, "computer</w>": 7574, "AustraliaCanada</w>": 7575, "finances</w>": 7576, "School</w>": 7577, "erJennifer</w>": 7578, "tible</w>": 7579, "Get": 7580, "vaccinesThe</w>": 7581, "foodNo</w>": 7582, "foodYes</w>": 7583, "foodsNo</w>": 7584, "foodFood</w>": 7585, "decadesThe</w>": 7586, "decadesThere</w>": 7587, "Spin": 7588, "officers": 7589, "PhysicsEinstein</w>": 7590, "NASA": 7591, "ceremon": 7592, "connection</w>": 7593, "hues": 7594, "white": 7595, "Hem": 7596, "Hogwarts": 7597, "onBielefeld</w>": 7598, "realJ</w>": 7599, "green": 7600, "blue": 7601, "opened</w>": 7602, "stole": 7603, "Sox": 7604, "legalSo": 7605, "civil": 7606, "version</w>": 7607, "docum": 7608, "ADH": 7609, "kingYou</w>": 7610, "Hooker</w>": 7611, "Cresp": 7612, "highMore</w>": 7613, "everything</w>": 7614, "Indian": 7615, "griego</w>": 7616, "runaway</w>": 7617, "flagIt</w>": 7618, "Australian": 7619, "IndiaIt</w>": 7620, "reflect</w>": 7621, "Austrian</w>": 7622, "Dragons</w>": 7623, "River": 7624, "mice": 7625, "poisonsThe</w>": 7626, "illegalIt</w>": 7627, "illegalP": 7628, "technically</w>": 7629, "futureYour</w>": 7630, "oli": 7631, "PoleThe</w>": 7632, "da</w>": 7633, "languagesNo</w>": 7634, "happensYou</w>": 7635, "happensIf</w>": 7636, "yearsIf</w>": 7637, "AmericaThe</w>": 7638, "AmericaThere</w>": 7639, "StatesAmerica": 7640, "arithme": 7641, "surger": 7642, "weak</w>": 7643, "coldThe</w>": 7644, "estimate</w>": 7645, "cogn": 7646, "ian</w>": 7647, "guardi": 7648, "morning</w>": 7649, "primor": 7650, "Vegas</w>": 7651, "GermanAll</w>": 7652, "Motor</w>": 7653, "ideom": 7654, "doctor</w>": 7655, "autom": 7656, "modelNo</w>": 7657, "variable</w>": 7658, "ghostsYou</w>": 7659, "ghostsThere</w>": 7660, "familyI</w>": 7661, "exercise": 7662, "poisonPowdered</w>": 7663, "Florida": 7664, "13</w>": 7665, "seri": 7666, "attract</w>": 7667, "girl": 7668, "thinkingYes</w>": 7669, "Syph": 7670, "Michel": 7671, "happenedThe</w>": 7672, "granted</w>": 7673, "eYes</w>": 7674, "sis": 7675, "quickly": 7676, "MuslimsYes</w>": 7677, "reduction</w>": 7678, "distance</w>": 7679, "mThe</w>": 7680, "UnknownIt</w>": 7681, "inequality</w>": 7682, "humansDogs</w>": 7683, "Uruguay": 7684, "timeNapoleon</w>": 7685, "soon</w>": 7686, "Tsan": 7687, "Fish": 7688, "stati": 7689, "thinkingNo</w>": 7690, "Istan": 7691, "meanings</w>": 7692, "babyIf</w>": 7693, "luckyIf</w>": 7694, "EUIt</w>": 7695, "roadYou</w>": 7696, "Turning</w>": 7697, "regular</w>": 7698, "regul": 7699, "140</w>": 7700, "agoFood</w>": 7701, "transp": 7702, "transport</w>": 7703, "daysNo</w>": 7704, "headqu": 7705, "tongu": 7706, "abroad</w>": 7707, "confidenti": 7708, "Mikey</w>": 7709, "someone": 7710, "kes": 7711, "Kel": 7712, "dreamsYou</w>": 7713, "block": 7714, "transfer</w>": 7715, "alThere</w>": 7716, "signal</w>": 7717, "assessed</w>": 7718, "signify</w>": 7719, "cancerYes</w>": 7720, "organized</w>": 7721, "organizing</w>": 7722, "bergThe</w>": 7723, "heroin": 7724, "digestion": 7725, "BritainIt</w>": 7726, "Kahn</w>": 7727, "cycles": 7728, "lemmings</w>": 7729, "Sym": 7730, "NetherlandsWeed</w>": 7731, "legalAl": 7732, "normal</w>": 7733, "suspected</w>": 7734, "fraudNo</w>": 7735, "fraudul": 7736, "fraudIf</w>": 7737, "effects": 7738, "ms": 7739, "Amsterdam": 7740, "kidnappingYes</w>": 7741, "hyper": 7742, "tsIt</w>": 7743, "USBy</w>": 7744, "Tap</w>": 7745, "Taxes</w>": 7746, "Cons": 7747, "religions": 7748, "Perkin": 7749, "dogm": 7750, "dogsYes</w>": 7751, "Foods</w>": 7752, "devout": 7753, "wearer</w>": 7754, "territ": 7755, "Colum": 7756, "gayMore</w>": 7757, "summ": 7758, "surface</w>": 7759, "AmericansS": 7760, "uncture</w>": 7761, "cavities</w>": 7762, "waterCats</w>": 7763, "sStars</w>": 7764, "2003</w>": 7765, "pupp": 7766, "eyesI</w>": 7767, "eyesight</w>": 7768, "spiritsThe</w>": 7769, "AfricaIn</w>": 7770, "mask": 7771, "lineYou</w>": 7772, "roundThe</w>": 7773, "roundI</w>": 7774, "krona</w>": 7775, "kroneYou</w>": 7776, "concluded</w>": 7777, "autismA</w>": 7778, "acronymIt</w>": 7779, "acronymNoth": 7780, "commentDreams</w>": 7781, "method": 7782, "nutrients</w>": 7783, "Pakistan": 7784, "pharaoh": 7785, "Santa": 7786, "golf": 7787, "popula": 7788, "depletionThe</w>": 7789, "entrap": 7790, "hairThe</w>": 7791, "hospitalYou</w>": 7792, "perio": 7793, "severe</w>": 7794, "Witwat": 7795, "continue</w>": 7796, "ea": 7797, "recei": 7798, "Ces": 7799, "Carm": 7800, "eyestrain": 7801, "rugb": 7802, "farmer</w>": 7803, "farmingYes</w>": 7804, "waiting</w>": 7805, "Greec": 7806, "realPsych": 7807, "demonstratedPsych": 7808, "powersScientists</w>": 7809, "policeYou</w>": 7810, "vedYes</w>": 7811, "suicide": 7812, "placeIf</w>": 7813, "AngelesIt</w>": 7814, "generally</w>": 7815, "regener": 7816, "Tele": 7817, "houseIf</w>": 7818, "Astr": 7819, "systemThe</w>": 7820, "exhib": 7821, "ArgentinaThe</w>": 7822, "ArgentinaChile</w>": 7823, "attackWaking</w>": 7824, "illegalCannabis</w>": 7825, "NetherlandsCannabis</w>": 7826, "prey": 7827, "Bruno</w>": 7828, "figures</w>": 7829, "Sto": 7830, "airspaceThe</w>": 7831, "tiesThe</w>": 7832, "lifeKarma</w>": 7833, "peopleMore</w>": 7834, "wardrobe": 7835, "pink": 7836, "familySticking</w>": 7837, "cultures": 7838, "redMatadors</w>": 7839, "skin": 7840, "cancerAntiperspirants</w>": 7841, "flee</w>": 7842, "flew</w>": 7843, "butor": 7844, "Presley</w>": 7845, "Tusk</w>": 7846, "Tusk": 7847, "Tuske": 7848, "Jupit": 7849, "Higgs</w>": 7850, "Flakes</w>": 7851, "stages</w>": 7852, "cape</w>": 7853, "capable</w>": 7854, "Kon": 7855, "Mount</w>": 7856, "Far</w>": 7857, "driving": 7858, "earlier": 7859, "Nar": 7860, "FloridaYou</w>": 7861, "cursed</w>": 7862, "purcha": 7863, "tools</w>": 7864, "conqu": 7865, "colors": 7866, "wave": 7867, "Inde": 7868, "elsewhere</w>": 7869, "elsewh": 7870, "marriage</w>": 7871, "nessYou</w>": 7872, "Well": 7873, "bodyYes</w>": 7874, "inventors</w>": 7875, "partn": 7876, "euros": 7877, "calories</w>": 7878, "sportsI</w>": 7879, "Italy": 7880, "terrible</w>": 7881, "hoursLSD</w>": 7882, "levels</w>": 7883, "million</w>": 7884, "millions</w>": 7885, "millionThe</w>": 7886, "NetherlandsYes</w>": 7887, "minox": 7888, "sequences</w>": 7889, "preferences</w>": 7890, "Garn": 7891, "Bor": 7892, "Tortois": 7893, "Exorcist": 7894, "appearIf</w>": 7895, "disappear": 7896, "straightUnknown": 7897, "Domini</w>": 7898, "together": 7899, "Hooker": 7900, "VirginiaThere</w>": 7901, "Nauru": 7902, "Driving</w>": 7903, "responding</w>": 7904, "unconscious</w>": 7905, "broadca": 7906, "Miami": 7907, "yearsDiamonds</w>": 7908, "predator": 7909, "Between</w>": 7910, "Madrid</w>": 7911, "ChicagoThe</w>": 7912, "misattributed</w>": 7913, "realGhosts</w>": 7914, "Portugal</w>": 7915, "gayAt</w>": 7916, "Samo": 7917, "nowThe</w>": 7918, "Bush</w>": 7919, "bush</w>": 7920, "migh": 7921, "witches</w>": 7922, "inaction</w>": 7923, "blood": 7924, "Chur": 7925, "Frie": 7926, "Fried": 7927, "motiv": 7928, "Activ": 7929, "arrog": 7930, "Study</w>": 7931, "1981</w>": 7932, "poorer</w>": 7933, "poorYes</w>": 7934, "starboard</w>": 7935, "symmetric</w>": 7936, "Class</w>": 7937, "prompt</w>": 7938, "promp": 7939, "eyestrain</w>": 7940, "ChristiansNo</w>": 7941, "ChristiansYes</w>": 7942, "Mandel": 7943, "Perkins</w>": 7944, "sPorcupines</w>": 7945, "womenYes</w>": 7946, "womenMen</w>": 7947, "FinlandThe</w>": 7948, "bucksk": 7949, "numbersYes</w>": 7950, "ItaliansThe</w>": 7951, "GatesHis</w>": 7952, "GatesBill</w>": 7953, "studentEinstein</w>": 7954, "studentBill</w>": 7955, "frogThe</w>": 7956, "Jews": 7957, "JewsYes</w>": 7958, "CanadiansAmericans</w>": 7959, "IndiansAmericans</w>": 7960, "als": 7961, "minute</w>": 7962, "kingIt</w>": 7963, "AmericaStatesIt</w>": 7964, "2016</w>": 7965, "wineYes</w>": 7966, "venomYou</w>": 7967, "Wizards</w>": 7968, "Bas": 7969, "personalityThe</w>": 7970, "reportYou</w>": 7971, "Eri": 7972, "garlic": 7973, "license</w>": 7974, "religionI</w>": 7975, "religionIn</w>": 7976, "survive</w>": 7977, "wolfIf</w>": 7978, "Barcel": 7979, "unlucky</w>": 7980, "telling</w>": 7981, "commemor": 7982, "graduall": 7983, "harmArtificial</w>": 7984, "PhiladelphiaThe</w>": 7985, "ven": 7986, "scientistsA": 7987, "Disney": 7988, "quantities</w>": 7989, "networkThis</w>": 7990, "SeattleIt</w>": 7991, "injure": 7992, "nit": 7993, "transportation</w>": 7994, "terrorist</w>": 7995, "flyScience</w>": 7996, "butterfly": 7997, "Madoff": 7998, "ribsHumans</w>": 7999, "ribsMost</w>": 8000, "richestIreland</w>": 8001, "citizens</w>": 8002, "temperature": 8003, "ArgentinaVenezuela</w>": 8004, "upUgly</w>": 8005, "Homeopath": 8006, "Forbidden</w>": 8007, "January</w>": 8008, "graph</w>": 8009, "Schind": 8010, "ithThe</w>": 8011, "Ruth</w>": 8012, "weren</w>": 8013, "Nowhere</w>": 8014, "combing</w>": 8015, "SunHumans</w>": 8016, "Close</w>": 8017, "causal</w>": 8018, "causally</w>": 8019, "property": 8020, "invention</w>": 8021, "doorYou</w>": 8022, "Pat": 8023, "impacts</w>": 8024, "behavi": 8025, "behaves</w>": 8026, "boson</w>": 8027, "Banos": 8028, "Banos</w>": 8029, "fade</w>": 8030, "taxed</w>": 8031, "dress": 8032, "faked": 8033, "Hasl": 8034, "Haslam": 8035, "hanged</w>": 8036, "parchment</w>": 8037, "parchment": 8038, "accident": 8039, "months</w>": 8040, "knives</w>": 8041, "knives": 8042, "Scan": 8043, "variety</w>": 8044, "Mercur": 8045, "sickYou</w>": 8046, "lizard</w>": 8047, "ferti": 8048, "lamps</w>": 8049, "animalI</w>": 8050, "grape</w>": 8051, "Stripe</w>": 8052, "Chinese": 8053, "desecra": 8054, "spacecra": 8055, "Parro": 8056, "francs</w>": 8057, "francs": 8058, "loca": 8059, "varies</w>": 8060, "varying</w>": 8061, "operations</w>": 8062, "marke": 8063, "bitco": 8064, "Eagles": 8065, "Sutherland</w>": 8066, "Sutherland": 8067, "malfunction</w>": 8068, "drinkNo</w>": 8069, "Emirates</w>": 8070, "Emirates": 8071, "helicob": 8072, "lawyersAll</w>": 8073, "minds": 8074, "sweetsNo</w>": 8075, "reduce</w>": 8076, "produce</w>": 8077, "Februar": 8078, "ScotlandIt</w>": 8079, "Roeser</w>": 8080, "Roeser": 8081, "Obisp": 8082, "Obispo": 8083, "clientsNo</w>": 8084, "clientsYes</w>": 8085, "ambulance": 8086, "virusesYes</w>": 8087, "virusesNo</w>": 8088, "Monaco</w>": 8089, "Monaco": 8090, "evidence": 8091, "evidenceNo</w>": 8092, "pork": 8093, "Israel</w>": 8094, "edPoverty</w>": 8095, "AfricaPoverty</w>": 8096, "telepathicThe</w>": 8097, "wallet": 8098, "DutchThe</w>": 8099, "Happ": 8100, "happiness</w>": 8101, "properties": 8102, "StreetYou</w>": 8103, "smarterYes</w>": 8104, "weekendsNo</w>": 8105, "weekendsI</w>": 8106, "Hindu": 8107, "Hindu</w>": 8108, "crystalsThe</w>": 8109, "watches": 8110, "menLung</w>": 8111, "UnionBecause</w>": 8112, "Wein": 8113, "Marcell": 8114, "IrishPeople</w>": 8115, "permission</w>": 8116, "countriesCountries</w>": 8117, "Santa</w>": 8118, "AlaskaIt</w>": 8119, "leader": 8120, "survivor": 8121, "consciousNo</w>": 8122, "unconscious": 8123, "commentUnknownIn</w>": 8124, "dreamsYour</w>": 8125, "anythingNothing</w>": 8126, "Hewitt</w>": 8127, "Hewitt": 8128, "PresleyElvis</w>": 8129, "Brunswick": 8130, "Brunswick</w>": 8131, "Dominica</w>": 8132, "tissue": 8133, "explode</w>": 8134, "efforts</w>": 8135, "possibly</w>": 8136, "Pos": 8137, "intolerant</w>": 8138, "intolerance</w>": 8139, "sustainable</w>": 8140, "excessive</w>": 8141, "excessive": 8142, "drugsArtists</w>": 8143, "insufficient</w>": 8144, "Ultraproducts</w>": 8145, "exaggerated</w>": 8146, "exaggeration</w>": 8147, "Jurvetson</w>": 8148, "Jurvetson": 8149, "Rye</w>": 8150, "Kane</w>": 8151, "soul</w>": 8152, "representi": 8153, "Wild</w>": 8154, "Mitt</w>": 8155, "och": 8156, "entirely</w>": 8157, "stol": 8158, "Catch": 8159, "emotions</w>": 8160, "Isht": 8161, "Medi": 8162, "themLow</w>": 8163, "text</w>": 8164, "tend": 8165, "anime": 8166, "flip</w>": 8167, "comaWaking</w>": 8168, "Gilmore</w>": 8169, "ticket</w>": 8170, "losing</w>": 8171, "seconds": 8172, "approxim": 8173, "needs</w>": 8174, "issues": 8175, "homosexual": 8176, "stakeYou</w>": 8177, "look": 8178, "thousands</w>": 8179, "separate</w>": 8180, "Neural</w>": 8181, "bagg": 8182, "searching</w>": 8183, "issues</w>": 8184, "Bro": 8185, "stayed</w>": 8186, "struc": 8187, "Jobs": 8188, "obligated</w>": 8189, "Confe": 8190, "EveGod</w>": 8191, "FrenchAll</w>": 8192, "Freud</w>": 8193, "potential</w>": 8194, "Reports</w>": 8195, "Rolfe</w>": 8196, "innoc": 8197, "Edison</w>": 8198, "dises": 8199, "extraterrestrialAny</w>": 8200, "dialec": 8201, "Clau": 8202, "sync": 8203, "teachers</w>": 8204, "lvan": 8205, "crimeNo</w>": 8206, "rigorous</w>": 8207, "ancestor</w>": 8208, "greed": 8209, "salmonel": 8210, "Nazi</w>": 8211, "lateYes</w>": 8212, "pomegranateYou</w>": 8213, "hoax": 8214, "Crick</w>": 8215, "aris</w>": 8216, "moneyIf</w>": 8217, "statesThe</w>": 8218, "Boeing</w>": 8219, "inflict</w>": 8220, "evilAll</w>": 8221, "timeYes": 8222, "avail": 8223, "trigger": 8224, "humansApes</w>": 8225, "treasu": 8226, "Waugh</w>": 8227, "Critic": 8228, "trillion</w>": 8229, "Transit</w>": 8230, "correlation</w>": 8231, "stadiums</w>": 8232, "medicineIn</w>": 8233, "Hampsh": 8234, "Edson</w>": 8235, "lyingA</w>": 8236, "flutter": 8237, "zodiac</w>": 8238, "Puebl": 8239, "dataset</w>": 8240, "trapped</w>": 8241, "assi": 8242, "Edelman</w>": 8243, "TexasIt</w>": 8244, "Antarctic</w>": 8245, "devices</w>": 8246, "Melb": 8247, "replicatedNo</w>": 8248, "fictionalNo</w>": 8249, "throughout</w>": 8250, "Colvin</w>": 8251, "illusion</w>": 8252, "liarsAll</w>": 8253, "wineWater</w>": 8254, "midnight": 8255, "targeted</w>": 8256, "Fat</w>": 8257, "dangerousI</w>": 8258, "defensive</w>": 8259, "weaponGuns</w>": 8260, "NorwayThe</w>": 8261, "allMirror</w>": 8262, "Monkeys</w>": 8263, "strongThere</w>": 8264, "mari": 8265, "LSDArtists</w>": 8266, "BuildingYou</w>": 8267, "technolog": 8268, "psychopathsYes</w>": 8269, "horses": 8270, "conditions": 8271, "professionalYou</w>": 8272, "mouthYou</w>": 8273, "multidrug</w>": 8274, "establishedThere</w>": 8275, "artifacts</w>": 8276, "biasedNo</w>": 8277, "extraterrestrialsArea</w>": 8278, "bonesHumans</w>": 8279, "myog": 8280, "length</w>": 8281, "fighter</w>": 8282, "Purcha": 8283, "colonized": 8284, "colonialism": 8285, "cellphone": 8286, "YousafzaiThe</w>": 8287, "freez": 8288, "weaponsMost</w>": 8289, "chocolate</w>": 8290, "coolerParis</w>": 8291, "Christopher</w>": 8292, "punctual</w>": 8293, "krone": 8294, "demonstratedPre": 8295, "cigarettes": 8296, "dynam": 8297, "humansCh": 8298, "processes</w>": 8299, "EurosEurosYou</w>": 8300, "illnessYes</w>": 8301, "deoxy": 8302, "Democrats</w>": 8303, "financesNixon</w>": 8304, "independentIreland</w>": 8305, "Atkins</w>": 8306, "interrogate</w>": 8307, "provided": 8308, "Mandarin</w>": 8309, "sourcesThere</w>": 8310, "PittAngelina</w>": 8311, "Goetz</w>": 8312, "prosecuted</w>": 8313, "homeopathy</w>": 8314, "analyz": 8315, "collapse</w>": 8316, "Rumsfeld</w>": 8317, "MotorsElon</w>": 8318, "requirements": 8319, "PhoenixThe</w>": 8320, "Alz": 8321, "fatigued</w>": 8322, "locomotion</w>": 8323, "assassinated</w>": 8324, "Rebellion</w>": 8325, "wolves": 8326, "databases</w>": 8327, "demo": 8328, "Provincetown</w>": 8329, "privileg": 8330, "SandersBernie</w>": 8331, "humansBirdsDog": 8332, "SociedadIts</w>": 8333, "Cerf</w>": 8334, "Sitk": 8335, "Jama": 8336, "IIThe</w>": 8337, "Plato</w>": 8338, "Baby</w>": 8339, "cabal</w>": 8340, "Aber": 8341, "until</w>": 8342, "stunt</w>": 8343, "owl</w>": 8344, "moment</w>": 8345, "Frost": 8346, "Murra": 8347, "DYes</w>": 8348, "amounts</w>": 8349, "badNo</w>": 8350, "Jerse": 8351, "oodBrain</w>": 8352, "330</w>": 8353, "masks</w>": 8354, "tasks</w>": 8355, "Cheer": 8356, "Nevad": 8357, "spray": 8358, "spheric": 8359, "phones</w>": 8360, "intestin": 8361, "Dubl": 8362, "saying</w>": 8363, "ikeThe</w>": 8364, "fucking</w>": 8365, "caffe": 8366, "FDA</w>": 8367, "repeated</w>": 8368, "estimated</w>": 8369, "overallYou</w>": 8370, "distract</w>": 8371, "Francois</w>": 8372, "monitor</w>": 8373, "Dougl": 8374, "Paci": 8375, "tit": 8376, "Socc": 8377, "apocr": 8378, "Venus</w>": 8379, "cremated</w>": 8380, "credited</w>": 8381, "retali": 8382, "August</w>": 8383, "vibrant</w>": 8384, "grasp</w>": 8385, "pneum": 8386, "precise</w>": 8387, "standing</w>": 8388, "Vancou": 8389, "vitam": 8390, "saladAll</w>": 8391, "managers</w>": 8392, "hua</w>": 8393, "Dursle": 8394, "Remus</w>": 8395, "Tsang": 8396, "Drugs</w>": 8397, "trouble</w>": 8398, "exposure</w>": 8399, "biogra": 8400, "Norwegi": 8401, "rupture</w>": 8402, "scitte</w>": 8403, "Sirius</w>": 8404, "linked</w>": 8405, "shrink": 8406, "Romulus</w>": 8407, "Rafa": 8408, "Marquand</w>": 8409, "Marbois</w>": 8410, "aspects</w>": 8411, "theorem": 8412, "Beij": 8413, "elephant</w>": 8414, "artOnly</w>": 8415, "Harvey</w>": 8416, "Scottish": 8417, "Natural</w>": 8418, "stillThe</w>": 8419, "spells</w>": 8420, "immune</w>": 8421, "Nelson</w>": 8422, "impaling</w>": 8423, "Krebs</w>": 8424, "umbilical</w>": 8425, "electrical</w>": 8426, "regarding</w>": 8427, "Neptune</w>": 8428, "Carlip": 8429, "inherit</w>": 8430, "Fornic": 8431, "pulled</w>": 8432, "PoleIt</w>": 8433, "Potter</w>": 8434, "difficult</w>": 8435, "Spartans</w>": 8436, "prohibi": 8437, "sensitive</w>": 8438, "roman": 8439, "stimulants</w>": 8440, "beautiful</w>": 8441, "LondonThe</w>": 8442, "Woolf</w>": 8443, "fashion": 8444, "timeFewer</w>": 8445, "describes</w>": 8446, "whaleThe</w>": 8447, "fightA</w>": 8448, "cyanide</w>": 8449, "Uranus</w>": 8450, "ladderIf</w>": 8451, "Taliban</w>": 8452, "rhyth": 8453, "talkOnly</w>": 8454, "guappo</w>": 8455, "underworldYou</w>": 8456, "ambiguousThe</w>": 8457, "baker": 8458, "correctly</w>": 8459, "chloro": 8460, "antibio": 8461, "Crespo": 8462, "MacArth": 8463, "extrasens": 8464, "spaceshi": 8465, "Antoin": 8466, "Getting</w>": 8467, "Spinach</w>": 8468, "officersYou</w>": 8469, "ceremonies</w>": 8470, "huesGreek</w>": 8471, "stolen</w>": 8472, "legalSoft</w>": 8473, "documented</w>": 8474, "Crespo</w>": 8475, "Indianap": 8476, "illegalPop</w>": 8477, "arithmetic</w>": 8478, "cognate</w>": 8479, "primordi": 8480, "ideomo": 8481, "automa": 8482, "Syphil": 8483, "Michelson</w>": 8484, "UruguayThe</w>": 8485, "Tsang</w>": 8486, "Fisher</w>": 8487, "statistic": 8488, "Istanbu": 8489, "regular": 8490, "transplan": 8491, "headquar": 8492, "Kellog": 8493, "Symmetric</w>": 8494, "legalAlco": 8495, "AmsterdamAmsterdam</w>": 8496, "Consent</w>": 8497, "Perkins": 8498, "dogma</w>": 8499, "territory</w>": 8500, "Columbus</w>": 8501, "summerThe</w>": 8502, "AmericansSmo": 8503, "puppi": 8504, "masks": 8505, "acronymNothingThe</w>": 8506, "methodology</w>": 8507, "pharaohYou</w>": 8508, "Santay": 8509, "Witwaters": 8510, "eating": 8511, "receive</w>": 8512, "Cessation</w>": 8513, "Carmaged": 8514, "Greece": 8515, "okines": 8516, "suicideThe</w>": 8517, "Telepath": 8518, "Astrological</w>": 8519, "preySnakes</w>": 8520, "Stoc": 8521, "wardrobeYou</w>": 8522, "pinkChartreuse</w>": 8523, "culturesSticking</w>": 8524, "butorfle": 8525, "Tuskeg": 8526, "Jupiter</w>": 8527, "Konrad</w>": 8528, "Narni": 8529, "purchased</w>": 8530, "conquered</w>": 8531, "waveLight</w>": 8532, "Indecent</w>": 8533, "elsewher": 8534, "Wellington</w>": 8535, "partnerI</w>": 8536, "minoxi": 8537, "Borstal</w>": 8538, "Tortoises</w>": 8539, "ExorcistTexas</w>": 8540, "straightUnknownThe</w>": 8541, "MiamiNew</w>": 8542, "Samoa</w>": 8543, "mighti": 8544, "Friedr": 8545, "Friedman</w>": 8546, "Activity</w>": 8547, "promptsI</w>": 8548, "Mandela</w>": 8549, "buckskins</w>": 8550, "Baseball</w>": 8551, "Erikson</w>": 8552, "Barcelon": 8553, "commemorates</w>": 8554, "graduallyThere</w>": 8555, "injuredIf</w>": 8556, "butterflye</w>": 8557, "MadoffBernie</w>": 8558, "Schindler</w>": 8559, "behavior</w>": 8560, "fakedA</w>": 8561, "Haslam</w>": 8562, "knivesIt</w>": 8563, "Scandin": 8564, "Mercury</w>": 8565, "fertiliz": 8566, "spacecraf": 8567, "locationYou</w>": 8568, "EaglesBoston</w>": 8569, "helicobacter</w>": 8570, "mindsCuddy</w>": 8571, "February": 8572, "Obispo</w>": 8573, "ambulanceYou</w>": 8574, "Israel": 8575, "walletNearly</w>": 8576, "Happiness</w>": 8577, "propertiesWe</w>": 8578, "watchesWhite</w>": 8579, "Weinberg</w>": 8580, "Marcellus</w>": 8581, "leadership</w>": 8582, "survivorship</w>": 8583, "tissueVeins</w>": 8584, "Possibly</w>": 8585, "representing</w>": 8586, "stolenThe</w>": 8587, "Catcher</w>": 8588, "Ishtar</w>": 8589, "Medieval</w>": 8590, "tenden": 8591, "animeYes</w>": 8592, "secondsA</w>": 8593, "approximately</w>": 8594, "lookali": 8595, "baggage</w>": 8596, "Broc": 8597, "structured</w>": 8598, "Confeder": 8599, "innocence</w>": 8600, "disesase</w>": 8601, "dialectal</w>": 8602, "Claudet": 8603, "lvania</w>": 8604, "greedyAll</w>": 8605, "salmonella": 8606, "timeYesAverage</w>": 8607, "available</w>": 8608, "triggered</w>": 8609, "treasuri": 8610, "Criticality</w>": 8611, "Hampshire</w>": 8612, "flutterby</w>": 8613, "Puebla</w>": 8614, "assistance</w>": 8615, "Melbour": 8616, "midnightCoaches</w>": 8617, "marijuana</w>": 8618, "technologyArea</w>": 8619, "myoglob": 8620, "Purchase": 8621, "colonizedIreland</w>": 8622, "colonialismIreland</w>": 8623, "cellphoneAnyone</w>": 8624, "kroneEuro</w>": 8625, "cigarettesDoctors</w>": 8626, "dynamics</w>": 8627, "humansChimpanz": 8628, "deoxygen": 8629, "analyzing</w>": 8630, "requirementsBusinesses</w>": 8631, "Alzheimer</w>": 8632, "democracyThe</w>": 8633, "privileged</w>": 8634, "humansBirdsDogs": 8635, "Sitka</w>": 8636, "Jamaic": 8637, "Aberyst": 8638, "Frosted</w>": 8639, "Murray</w>": 8640, "Cheeri": 8641, "sprayT": 8642, "spherical</w>": 8643, "intestinal</w>": 8644, "Dublin</w>": 8645, "Douglas</w>": 8646, "Soccer</w>": 8647, "apocry": 8648, "retaliation</w>": 8649, "pneumon": 8650, "Vancouver": 8651, "biograph": 8652, "Norwegian</w>": 8653, "Rafael</w>": 8654, "theoremsNo</w>": 8655, "Gael": 8656, "Fornicated</w>": 8657, "prohibiting</w>": 8658, "romantic</w>": 8659, "rhythm</w>": 8660, "chloroqu": 8661, "MacArthur</w>": 8662, "extrasensory</w>": 8663, "spaceships</w>": 8664, "Antoinette</w>": 8665, "Indianapol": 8666, "primordial</w>": 8667, "ideomotor</w>": 8668, "Syphilis</w>": 8669, "Istanbul</w>": 8670, "transplants</w>": 8671, "Kellogg</w>": 8672, "legalAlcohol</w>": 8673, "AmericansSmoking</w>": 8674, "Santayana</w>": 8675, "Carmageddon</w>": 8676, "GreeceRussians</w>": 8677, "okinesis</w>": 8678, "Telepathy</w>": 8679, "Stocks</w>": 8680, "butorfleog": 8681, "Tuskegee</w>": 8682, "NarniaYou</w>": 8683, "elsewhere": 8684, "minoxidi": 8685, "mightier</w>": 8686, "Friedrich</w>": 8687, "Barcelona</w>": 8688, "Scandinavi": 8689, "FebruaryPhiladelphia</w>": 8690, "tendencies</w>": 8691, "lookalike</w>": 8692, "Brocco": 8693, "Confederate</w>": 8694, "Claudette</w>": 8695, "treasuries</w>": 8696, "Melbourne</w>": 8697, "humansChimpanzees</w>": 8698, "deoxygenated</w>": 8699, "humansBirdsDogsAp": 8700, "Aberystw": 8701, "Cheerios": 8702, "sprayTas": 8703, "apocryph": 8704, "VancouverIt</w>": 8705, "Gaelic": 8706, "chloroquine</w>": 8707, "Indianapolis</w>": 8708, "elsewhereOur</w>": 8709, "minoxidil</w>": 8710, "Broccoli</w>": 8711, "humansBirdsDogsApes": 8712, "CheeriosThe</w>": 8713, "sprayTasers</w>": 8714, "apocryphal</w>": 8715, "humansBirdsDogsApesCh": 8716, "humansBirdsDogsApesChimp": 8717, "humansBirdsDogsApesChimps": 8718, "humansBirdsDogsApesChimpsBirds</w>": 8719, "&</w>": 8720, "Y</w>": 8721, "X</w>": 8722, "EM": 8723, "As</w>": 8724, "bin</w>": 8725, "And</w>": 8726, "gues": 8727, "Wan</w>": 8728, "ran</w>": 8729, "Sw": 8730, "onF": 8731, "%,</w>": 8732, "tied</w>": 8733, "El</w>": 8734, "von</w>": 8735, "sand</w>": 8736, "oral</w>": 8737, "leg</w>": 8738, "Fle": 8739, "MThe</w>": 8740, "thThe</w>": 8741, "War": 8742, "youThe</w>": 8743, "itThe</w>": 8744, "beThe</w>": 8745, "Mr</w>": 8746, "Bil": 8747, "\u2026\"</w>": 8748, "!\"</w>": 8749, "Pen</w>": 8750, "omen</w>": 8751, "beat": 8752, "Lot</w>": 8753, "behave</w>": 8754, "Sum": 8755, "eel": 8756, "Nir": 8757, "Cir": 8758, "soo": 8759, "too": 8760, "rever": 8761, "fit</w>": 8762, "bit</w>": 8763, "penal</w>": 8764, "Pag": 8765, "stag": 8766, "My": 8767, "bear</w>": 8768, "show": 8769, "dish": 8770, "youNo</w>": 8771, "Pent": 8772, "exp": 8773, "went</w>": 8774, "sent</w>": 8775, "role</w>": 8776, "inI</w>": 8777, "youI</w>": 8778, "Bra": 8779, "ash": 8780, "happening</w>": 8781, "youYes</w>": 8782, "itYes</w>": 8783, "youYou</w>": 8784, "itYou</w>": 8785, "hat": 8786, "side": 8787, "happenYou</w>": 8788, "rods</w>": 8789, "meat</w>": 8790, "Luc": 8791, "Ves": 8792, "tip</w>": 8793, "inIf</w>": 8794, "fas": 8795, "gas": 8796, "hur": 8797, "eco</w>": 8798, "chec": 8799, "TI": 8800, "jet</w>": 8801, "raw</w>": 8802, "AM": 8803, "Nag": 8804, "cash": 8805, "doIt</w>": 8806, "accoun": 8807, "forth</w>": 8808, "others</w>": 8809, "usThere</w>": 8810, "Mun": 8811, "Kos": 8812, "Ros": 8813, "room</w>": 8814, "Lad": 8815, "earn": 8816, "mer": 8817, "pse": 8818, "allE": 8819, "allThe</w>": 8820, "pros": 8821, "Good</w>": 8822, "tried</w>": 8823, "trial": 8824, "trivi": 8825, "60</w>": 8826, "Ca": 8827, "reset</w>": 8828, "Hate</w>": 8829, "dry</w>": 8830, "dram": 8831, "drun": 8832, "Neal</w>": 8833, "Neum": 8834, "buy</w>": 8835, "buk</w>": 8836, "pin": 8837, "resear": 8838, "sue</w>": 8839, "swim": 8840, "tiny</w>": 8841, "intent</w>": 8842, "inten": 8843, "spla": 8844, "wha": 8845, "prote": 8846, "adol": 8847, "humid": 8848, "Hay": 8849, "Town</w>": 8850, "toe</w>": 8851, "toNo</w>": 8852, "pha": 8853, "worse</w>": 8854, "dose</w>": 8855, "feed</w>": 8856, "wife": 8857, "guil": 8858, "ske": 8859, "plot</w>": 8860, "plans</w>": 8861, "roam</w>": 8862, "dad</w>": 8863, "sad</w>": 8864, "Equ": 8865, "ina": 8866, "moun": 8867, "mee": 8868, "exis": 8869, "anger</w>": 8870, "kang": 8871, "Nine</w>": 8872, "coca": 8873, "Noir</w>": 8874, "resid": 8875, "Bob": 8876, "CB": 8877, "mR": 8878, "neat": 8879, "stated</w>": 8880, "isol": 8881, "Fath": 8882, "heath": 8883, "cant": 8884, "costs</w>": 8885, "Sn": 8886, "vein</w>": 8887, "vom": 8888, "vis": 8889, "firing</w>": 8890, "Jack</w>": 8891, "pack</w>": 8892, "lack</w>": 8893, "overall</w>": 8894, "overla": 8895, "overIf</w>": 8896, "gover": 8897, "bloo": 8898, "lake": 8899, "cares</w>": 8900, "carri": 8901, "tree</w>": 8902, "Pir": 8903, "UKIn</w>": 8904, "UKUS</w>": 8905, "someIt</w>": 8906, "cake": 8907, "nav": 8908, "haun": 8909, "commit": 8910, "ceme": 8911, "tum": 8912, "neig": 8913, "resc": 8914, "aban": 8915, "marks</w>": 8916, "saint": 8917, "proves</w>": 8918, "trace</w>": 8919, "theor": 8920, "Mog": 8921, "Cour": 8922, "prin": 8923, "pain</w>": 8924, "paper": 8925, "reli": 8926, "unable</w>": 8927, "yearYes</w>": 8928, "yearYou</w>": 8929, "yearIn</w>": 8930, "audi": 8931, "Cur": 8932, "portion</w>": 8933, "repor": 8934, "curre": 8935, "overcome</w>": 8936, "watch": 8937, "mess": 8938, "lawThe</w>": 8939, "lawIf</w>": 8940, "lawThere</w>": 8941, "lawAll</w>": 8942, "stead": 8943, "taste": 8944, "boosts</w>": 8945, "take": 8946, "alloc": 8947, "intu": 8948, "originIt</w>": 8949, "originates</w>": 8950, "boy</w>": 8951, "boo</w>": 8952, "fet": 8953, "Icar": 8954, "means": 8955, "sick</w>": 8956, "faun": 8957, "creat": 8958, "crew</w>": 8959, "creates</w>": 8960, "cream": 8961, "Gerard</w>": 8962, "Auto</w>": 8963, "gear</w>": 8964, "commentIn</w>": 8965, "Hous": 8966, "spous": 8967, "ritu": 8968, "fluc": 8969, "Away</w>": 8970, "calls</w>": 8971, "invo": 8972, "Bach": 8973, "ions</w>": 8974, "grant</w>": 8975, "fun</w>": 8976, "fur</w>": 8977, "more": 8978, "rainIt</w>": 8979, "French": 8980, "puts</w>": 8981, "Gore": 8982, "prey</w>": 8983, "prep": 8984, "pred": 8985, "previ": 8986, "unifor": 8987, "anyway</w>": 8988, "UKCanada</w>": 8989, "landCanada</w>": 8990, "ruin</w>": 8991, "though</w>": 8992, "Californian</w>": 8993, "critic": 8994, "loan</w>": 8995, "sche": 8996, "asc": 8997, "degre": 8998, "having</w>": 8999, "coats</w>": 9000, "popYes</w>": 9001, "these</w>": 9002, "feel": 9003, "Lies</w>": 9004, "Dos</w>": 9005, "Kill": 9006, "hour</w>": 9007, "detain</w>": 9008, "consump": 9009, "overIreland</w>": 9010, "Gob": 9011, "72</w>": 9012, "spying</w>": 9013, "buying</w>": 9014, "replace</w>": 9015, "rate": 9016, "State": 9017, "healthIf</w>": 9018, "healthThere</w>": 9019, "healthY": 9020, "Sle": 9021, "rising": 9022, "UKAmerica</w>": 9023, "hole</w>": 9024, "hoist": 9025, "Green": 9026, "trout": 9027, "outI</w>": 9028, "outIf</w>": 9029, "about": 9030, "Enric": 9031, "fab": 9032, "accus": 9033, "tob": 9034, "plant</w>": 9035, "planYes</w>": 9036, "planned</w>": 9037, "plane": 9038, "fund": 9039, "percep": 9040, "Parks</w>": 9041, "Elvi": 9042, "ign": 9043, "ding": 9044, "regi": 9045, "giving</w>": 9046, "mol": 9047, "assess</w>": 9048, "Ref": 9049, "chain</w>": 9050, "Luck": 9051, "lun": 9052, "marble</w>": 9053, "lieNo</w>": 9054, "lieA</w>": 9055, "pure</w>": 9056, "nat": 9057, "stating</w>": 9058, "exca": 9059, "eye</w>": 9060, "Eey": 9061, "candy</w>": 9062, "swallowed</w>": 9063, "disallowed</w>": 9064, "Sain": 9065, "pet": 9066, "dir": 9067, "Univer": 9068, "Cast</w>": 9069, "toast</w>": 9070, "breast</w>": 9071, "British": 9072, "cook</w>": 9073, "below</w>": 9074, "Chuck</w>": 9075, "800</w>": 9076, "500</w>": 9077, "denti": 9078, "verge</w>": 9079, "carti": 9080, "nud": 9081, "cramp": 9082, "depend</w>": 9083, "aids</w>": 9084, "EuropeThere</w>": 9085, "EuropeIn</w>": 9086, "European": 9087, "EuropeAmericans</w>": 9088, "EuropeAmerica</w>": 9089, "Norr": 9090, "swall": 9091, "muscl": 9092, "babies</w>": 9093, "mob</w>": 9094, "bin": 9095, "accor": 9096, "depending</w>": 9097, "intact": 9098, "polite</w>": 9099, "bull</w>": 9100, "theater": 9101, "Water": 9102, "mater": 9103, "smited</w>": 9104, "doom": 9105, "warThe</w>": 9106, "warts</w>": 9107, "warning</w>": 9108, "warty</w>": 9109, "scent</w>": 9110, "scal": 9111, "scam</w>": 9112, "scat": 9113, "score": 9114, "rib": 9115, "yearsThe</w>": 9116, "book": 9117, "crab": 9118, "Adol": 9119, "paw": 9120, "inqu": 9121, "95</w>": 9122, "85</w>": 9123, "ofThere</w>": 9124, "weak": 9125, "purple</w>": 9126, "purge</w>": 9127, "trust": 9128, "simp": 9129, "mirac": 9130, "rival": 9131, "fix": 9132, "quali": 9133, "fif": 9134, "goat</w>": 9135, "even": 9136, "solving</w>": 9137, "airIf</w>": 9138, "charge</w>": 9139, "timez": 9140, "indu": 9141, "dislike</w>": 9142, "demonic</w>": 9143, "demonsThe</w>": 9144, "Koreas</w>": 9145, "Lee</w>": 9146, "disori": 9147, "enta": 9148, "Theft</w>": 9149, "lies": 9150, "error</w>": 9151, "terror</w>": 9152, "turkey</w>": 9153, "hoc": 9154, "entire</w>": 9155, "Bert</w>": 9156, "oft": 9157, "foil": 9158, "dag": 9159, "Kro": 9160, "bury</w>": 9161, "suggest</w>": 9162, "underm": 9163, "undergo</w>": 9164, "understand</w>": 9165, "incom": 9166, "existThe</w>": 9167, "timeLondon</w>": 9168, "Marsh": 9169, "rises</w>": 9170, "story</w>": 9171, "Story</w>": 9172, "uniform</w>": 9173, "USYou</w>": 9174, "USIt</w>": 9175, "USG": 9176, "USA</w>": 9177, "USCanada</w>": 9178, "USAmerica</w>": 9179, "USJapan</w>": 9180, "treated</w>": 9181, "scientist": 9182, "bird": 9183, "hoursNo</w>": 9184, "knowThe</w>": 9185, "instead": 9186, "58</w>": 9187, "1968</w>": 9188, "areNo</w>": 9189, "share": 9190, "fare": 9191, "stations</w>": 9192, "medications</w>": 9193, "minds</w>": 9194, "admin": 9195, "basis</w>": 9196, "FranceNo</w>": 9197, "FranceUnited</w>": 9198, "FranceGermany</w>": 9199, "greatIf</w>": 9200, "99</w>": 9201, "Bean</w>": 9202, "Bez": 9203, "Alle": 9204, "Aldr": 9205, "gently</w>": 9206, "recently</w>": 9207, "frequ": 9208, "boston</w>": 9209, "proton</w>": 9210, "protons</w>": 9211, "Romney</w>": 9212, "Scots": 9213, "coffin</w>": 9214, "coffe": 9215, "personThere</w>": 9216, "imperson": 9217, "active": 9218, "effective": 9219, "Dem": 9220, "USChina</w>": 9221, "decor": 9222, "meters</w>": 9223, "counters</w>": 9224, "aph": 9225, "abduc": 9226, "ups</w>": 9227, "genu": 9228, "Barn": 9229, "glands</w>": 9230, "portal</w>": 9231, "desec": 9232, "playYou</w>": 9233, "StatesYou</w>": 9234, "StatesAmerica</w>": 9235, "StatesChina</w>": 9236, "Scott</w>": 9237, "44</w>": 9238, "14</w>": 9239, "18": 9240, "epine": 9241, "masc": 9242, "around": 9243, "underg": 9244, "offence</w>": 9245, "office</w>": 9246, "Coff": 9247, "USMexicans</w>": 9248, "USBritain</w>": 9249, "realYes</w>": 9250, "reality</w>": 9251, "realIt</w>": 9252, "Petun": 9253, "upYou</w>": 9254, "upO": 9255, "realCh": 9256, "tails</w>": 9257, "boils</w>": 9258, "scor": 9259, "combu": 9260, "burn": 9261, "kingd": 9262, "frog": 9263, "pound": 9264, "discolor</w>": 9265, "CanadaIn</w>": 9266, "CanadaAmerica</w>": 9267, "CanadaChina</w>": 9268, "CanadaRussia</w>": 9269, "exists": 9270, "Canadians": 9271, "risks</w>": 9272, "thick</w>": 9273, "warFood</w>": 9274, "waterYou</w>": 9275, "waterPeople</w>": 9276, "Martin": 9277, "USVery</w>": 9278, "wax</w>": 9279, "Chad</w>": 9280, "folk</w>": 9281, "sly": 9282, "lyric": 9283, "shared": 9284, "Res": 9285, "voting</w>": 9286, "devo": 9287, "voice</w>": 9288, "safest": 9289, "EnglandNo</w>": 9290, "EnglandAmericans</w>": 9291, "EnglandPar": 9292, "OE": 9293, "concer": 9294, "top": 9295, "emp": 9296, "client</w>": 9297, "climb": 9298, "themYes</w>": 9299, "consider": 9300, "ghost": 9301, "FranceIndia</w>": 9302, "monke": 9303, "commentHumans</w>": 9304, "zero</w>": 9305, "Waldo</w>": 9306, "Walmar": 9307, "halves</w>": 9308, "Cari": 9309, "Carver</w>": 9310, "oldNo</w>": 9311, "Jabb": 9312, "gunI</w>": 9313, "worker</w>": 9314, "workThe</w>": 9315, "workI</w>": 9316, "workThere</w>": 9317, "working": 9318, "workplace</w>": 9319, "worksNo</w>": 9320, "smaller</w>": 9321, "flu</w>": 9322, "fluent": 9323, "fluids</w>": 9324, "fluori": 9325, "investor": 9326, "machines</w>": 9327, "brainThe</w>": 9328, "backThe</w>": 9329, "backYou</w>": 9330, "backIf</w>": 9331, "backA</w>": 9332, "chicken": 9333, "herb": 9334, "higher": 9335, "owner</w>": 9336, "Ker": 9337, "corner</w>": 9338, "monster</w>": 9339, "digg": 9340, "surp": 9341, "timesYes</w>": 9342, "chargesYes</w>": 9343, "neck</w>": 9344, "fought</w>": 9345, "forgets</w>": 9346, "ongoing</w>": 9347, "outgoing</w>": 9348, "Forest</w>": 9349, "Forks</w>": 9350, "Forces</w>": 9351, "yel": 9352, "suck": 9353, "Hil": 9354, "taug": 9355, "strug": 9356, "restar": 9357, "Ontar": 9358, "helped</w>": 9359, "dance</w>": 9360, "chance</w>": 9361, "partNo</w>": 9362, "mentally</w>": 9363, "entit": 9364, "flash": 9365, "substitu": 9366, "subli": 9367, "subj": 9368, "group": 9369, "CaliforniaThe</w>": 9370, "CaliforniaThere</w>": 9371, "CaliforniaNew</w>": 9372, "CaliforniaCalifornia</w>": 9373, "CaliforniaN": 9374, "sleepYou</w>": 9375, "sleepThere</w>": 9376, "sleepA</w>": 9377, "luckIt</w>": 9378, "Franz</w>": 9379, "Jen": 9380, "Ohi": 9381, "him</w>": 9382, "hij": 9383, "Luther</w>": 9384, "depri": 9385, "primar": 9386, "Enter": 9387, "wind": 9388, "lowThe</w>": 9389, "follow": 9390, "menThe</w>": 9391, "menI</w>": 9392, "virtu": 9393, "Mem": 9394, "roomNo</w>": 9395, "react": 9396, "remained</w>": 9397, "secular</w>": 9398, "striking</w>": 9399, "equal</w>": 9400, "flatYou</w>": 9401, "flatAll</w>": 9402, "commentBarack</w>": 9403, "UKScotland</w>": 9404, "Ther": 9405, "commentJennifer</w>": 9406, "Loop": 9407, "Monster": 9408, "Monster</w>": 9409, "catI</w>": 9410, "catsNo</w>": 9411, "catsYes</w>": 9412, "Qu": 9413, "invasi": 9414, "basi": 9415, "gene": 9416, "appears</w>": 9417, "Chath": 9418, "Chamb": 9419, "immac": 9420, "Greek": 9421, "requires</w>": 9422, "Clintons</w>": 9423, "deni": 9424, "IsWhat</w>": 9425, "carb": 9426, "UnionThe</w>": 9427, "phenomenonThe</w>": 9428, "ClintonThe</w>": 9429, "secessi": 9430, "passe": 9431, "humanYes</w>": 9432, "humanThere</w>": 9433, "build": 9434, "reject</w>": 9435, "Project</w>": 9436, "reaches</w>": 9437, "stateNo</w>": 9438, "Yes": 9439, "chur": 9440, "timeSwitzerland</w>": 9441, "FranceSwitzerland</w>": 9442, "StatesSwitzerland</w>": 9443, "ours": 9444, "lucky": 9445, "Active</w>": 9446, "hares</w>": 9447, "starsNo</w>": 9448, "start": 9449, "visit": 9450, "genie</w>": 9451, "pitch": 9452, "Africans": 9453, "bikin": 9454, "uncer": 9455, "cannab": 9456, "teleport</w>": 9457, "televisi": 9458, "violated": 9459, "source": 9460, "composer</w>": 9461, "breakup</w>": 9462, "realB": 9463, "objective</w>": 9464, "objects": 9465, "product</w>": 9466, "motion": 9467, "repurpose</w>": 9468, "ax": 9469, "dieThe</w>": 9470, "Chines": 9471, "planeThe</w>": 9472, "RomeThe</w>": 9473, "membr": 9474, "woo": 9475, "camer": 9476, "camou": 9477, "compon": 9478, "accomp": 9479, "Protec": 9480, "2020</w>": 9481, "happy": 9482, "pyl": 9483, "Steven</w>": 9484, "undead</w>": 9485, "humansIt</w>": 9486, "humansCan": 9487, "humansC": 9488, "1000</w>": 9489, "USTexas</w>": 9490, "schoolI</w>": 9491, "schoolYes</w>": 9492, "schoolElon</w>": 9493, "schoolJe": 9494, "base": 9495, "UniversityTr": 9496, "bond</w>": 9497, "hues</w>": 9498, "possi": 9499, "invisi": 9500, "demand</w>": 9501, "Ana": 9502, "Joa": 9503, "Jose</w>": 9504, "lact": 9505, "gluc": 9506, "overseas": 9507, "torture</w>": 9508, "testing</w>": 9509, "involves</w>": 9510, "charming</w>": 9511, "stub": 9512, "stub</w>": 9513, "intended</w>": 9514, "attended</w>": 9515, "pret": 9516, "realUFOs</w>": 9517, "Monarch": 9518, "commentApple</w>": 9519, "billions</w>": 9520, "snowy</w>": 9521, "reasoning</w>": 9522, "UKNorthern</w>": 9523, "Lebr": 9524, "wres": 9525, "Colon</w>": 9526, "Colleg": 9527, "hoo": 9528, "added</w>": 9529, "within</w>": 9530, "contenti": 9531, "weeks</w>": 9532, "countryI</w>": 9533, "countryYes</w>": 9534, "countryAfrica</w>": 9535, "countriesNo</w>": 9536, "countriesOnly</w>": 9537, "countriesAfrica</w>": 9538, "Moder": 9539, "institution</w>": 9540, "algorithm": 9541, "Gl": 9542, "minut": 9543, "glut": 9544, "grid</w>": 9545, "grown": 9546, "Hook</w>": 9547, "yearsI</w>": 9548, "artist": 9549, "belief": 9550, "protest": 9551, "starsI</w>": 9552, "politic": 9553, "disa": 9554, "ageYou</w>": 9555, "Er": 9556, "hypo": 9557, "FranceMany</w>": 9558, "CanadaMany</w>": 9559, "CaliforniaMany</w>": 9560, "neuro": 9561, "raisins</w>": 9562, "fusi": 9563, "Compass</w>": 9564, "PrizeR": 9565, "PrizeCha": 9566, "IrelandNo</w>": 9567, "IrelandAmerican</w>": 9568, "IrelandAustralia</w>": 9569, "IrelandChina</w>": 9570, "IrelandSouth</w>": 9571, "IrelandMexico</w>": 9572, "IrelandMost</w>": 9573, "IrelandSwitzerland</w>": 9574, "Japanese</w>": 9575, "JapanChina</w>": 9576, "JapanMexicans</w>": 9577, "JapanIndia</w>": 9578, "JapanSwitzerland</w>": 9579, "completed</w>": 9580, "upScientists</w>": 9581, "humanit": 9582, "total": 9583, "immor": 9584, "Everest</w>": 9585, "eye": 9586, "Hap": 9587, "false": 9588, "Ost": 9589, "Indon": 9590, "unicorn</w>": 9591, "Knitting</w>": 9592, "moderation</w>": 9593, "schoolGates</w>": 9594, "direction</w>": 9595, "rapper</w>": 9596, "handles</w>": 9597, "handHumans</w>": 9598, "handled</w>": 9599, "salesmen": 9600, "killers</w>": 9601, "killer</w>": 9602, "stur": 9603, "permanent</w>": 9604, "institute</w>": 9605, "Carol": 9606, "SpainThe</w>": 9607, "SpainUnited</w>": 9608, "SpainMany</w>": 9609, "unsafe</w>": 9610, "ZealandThe</w>": 9611, "ZealandNew</w>": 9612, "ZealandW": 9613, "ZealandWal": 9614, "ZealandMany</w>": 9615, "ride": 9616, "Park": 9617, "froz": 9618, "obesity": 9619, "EnglishIt</w>": 9620, "dangerIf</w>": 9621, "Endanger": 9622, "bladder</w>": 9623, "worldI</w>": 9624, "worldYes</w>": 9625, "worldIt</w>": 9626, "BMW": 9627, "stain</w>": 9628, "skyThe</w>": 9629, "Romne": 9630, "certa": 9631, "suppl": 9632, "directly</w>": 9633, "Burg": 9634, "mell": 9635, "melts</w>": 9636, "timesThe</w>": 9637, "sens": 9638, "AgesThe</w>": 9639, "notion</w>": 9640, "after": 9641, "novel": 9642, "Diet</w>": 9643, "critically</w>": 9644, "Spi": 9645, "techno</w>": 9646, "pylor": 9647, "minimal": 9648, "strangle</w>": 9649, "UKNoNo</w>": 9650, "CaliforniaNoNo</w>": 9651, "countriesNoNo</w>": 9652, "IrelandNoNo</w>": 9653, "JapanNoNo</w>": 9654, "EnglishNoNo</w>": 9655, "babyNo</w>": 9656, "enjoyNo</w>": 9657, "MexicoYes</w>": 9658, "MexicoYou</w>": 9659, "MexicoIt</w>": 9660, "MexicoPeople</w>": 9661, "MexicoChinese</w>": 9662, "countriesMexico": 9663, "unsub": 9664, "antipy": 9665, "glas": 9666, "cuisines</w>": 9667, "internet": 9668, "attacked</w>": 9669, "attackNo</w>": 9670, "attacksNo</w>": 9671, "attacksYes</w>": 9672, "SpainSpain</w>": 9673, "FranceJames</w>": 9674, "CanadaJames</w>": 9675, "CaliforniaJames</w>": 9676, "SpainJames</w>": 9677, "ZealandJames</w>": 9678, "timeMagic</w>": 9679, "weekly</w>": 9680, "weekYes</w>": 9681, "weekdays</w>": 9682, "weekly": 9683, "instruction</w>": 9684, "salar": 9685, "countryEveryone</w>": 9686, "pyramid": 9687, "commentAngelina</w>": 9688, "curi": 9689, "charm": 9690, "confl": 9691, "ideali": 9692, "workSalieri</w>": 9693, "LH": 9694, "getB": 9695, "MK</w>": 9696, "schoolHe</w>": 9697, "commentOn</w>": 9698, "balanc": 9699, "balance</w>": 9700, "sword": 9701, "Johan": 9702, "Macs</w>": 9703, "Order</w>": 9704, "organs": 9705, "hundr": 9706, "hunch": 9707, "debat": 9708, "status": 9709, "consens": 9710, "ensuring</w>": 9711, "chickens": 9712, "wayYes</w>": 9713, "wayIf</w>": 9714, "wayThere</w>": 9715, "Airway": 9716, "lifeYou</w>": 9717, "landingThe</w>": 9718, "reflected</w>": 9719, "aggrav": 9720, "UKJe": 9721, "ChristianThe</w>": 9722, "ChristianIt</w>": 9723, "Christianity": 9724, "diabetes": 9725, "Rome": 9726, "kidney</w>": 9727, "languageI</w>": 9728, "languageThere</w>": 9729, "languageJews</w>": 9730, "languageMuslims</w>": 9731, "languageLatin</w>": 9732, "doYesYes</w>": 9733, "UKYesYes</w>": 9734, "EnglandYesYes</w>": 9735, "countriesYesYes</w>": 9736, "IrelandYesYes</w>": 9737, "JapanYesYes</w>": 9738, "EnglishYesYes</w>": 9739, "beneath</w>": 9740, "first": 9741, "Empire": 9742, "47</w>": 9743, "195": 9744, "Nut</w>": 9745, "Out</w>": 9746, "Mann</w>": 9747, "song": 9748, "along": 9749, "timeCh": 9750, "hac": 9751, "faked</w>": 9752, "Rico</w>": 9753, "Ver": 9754, "doorm": 9755, "sor": 9756, "bites</w>": 9757, "orbit": 9758, "unin": 9759, "dark": 9760, "darker</w>": 9761, "confer": 9762, "Schae": 9763, "commentWill</w>": 9764, "magent": 9765, "magical</w>": 9766, "bedIf</w>": 9767, "birdIf</w>": 9768, "burne": 9769, "medication": 9770, "station": 9771, "moderation": 9772, "Mos": 9773, "cowls</w>": 9774, "seeing</w>": 9775, "seeks</w>": 9776, "irri": 9777, "clouds</w>": 9778, "guyYes</w>": 9779, "boyYes</w>": 9780, "energyYes</w>": 9781, "novel</w>": 9782, "involvement</w>": 9783, "holder</w>": 9784, "point</w>": 9785, "spearm": 9786, "scamm": 9787, "Progr": 9788, "computing</w>": 9789, "computer": 9790, "AustraliaFrance</w>": 9791, "AustraliaIreland</w>": 9792, "AustraliaNoNo</w>": 9793, "AustraliaYesYes</w>": 9794, "seances</w>": 9795, "balances</w>": 9796, "deli": 9797, "fiber": 9798, "Em": 9799, "Jeff": 9800, "defined</w>": 9801, "defined": 9802, "vaccination": 9803, "ineffective</w>": 9804, "foodIt</w>": 9805, "foodsYes</w>": 9806, "foodstu": 9807, "neither</w>": 9808, "GermanyAmericans</w>": 9809, "GermanyMany</w>": 9810, "minority</w>": 9811, "decadesT": 9812, "decadesW": 9813, "decadesBe": 9814, "decadesC": 9815, "decadesCha": 9816, "officers</w>": 9817, "PhysicsDonald</w>": 9818, "PhysicsPaul</w>": 9819, "Kingdoms</w>": 9820, "KingdomPeople</w>": 9821, "KingdomCanada</w>": 9822, "KingdomSwitzerland</w>": 9823, "connections</w>": 9824, "Rowling</w>": 9825, "speed": 9826, "shroom": 9827, "PrizeGeorge</w>": 9828, "Koreans": 9829, "pesticides": 9830, "West": 9831, "existBielefeld</w>": 9832, "GermanyBielefeld</w>": 9833, "flawe": 9834, "replicated": 9835, "burger": 9836, "threat</w>": 9837, "openIf</w>": 9838, "opened": 9839, "cleans": 9840, "circle": 9841, "Sox</w>": 9842, "Holly": 9843, "Jona": 9844, "Jonny</w>": 9845, "commentT": 9846, "miceYou</w>": 9847, "tiss": 9848, "gro": 9849, "sizeYou</w>": 9850, "depres": 9851, "incision</w>": 9852, "doctr": 9853, "noth": 9854, "workingYou</w>": 9855, "Cow": 9856, "boards</w>": 9857, "inform": 9858, "Captain</w>": 9859, "match</w>": 9860, "matter</w>": 9861, "cremat": 9862, "suffoc": 9863, "highThe</w>": 9864, "everywhere</w>": 9865, "prince": 9866, "MexicoBrits</w>": 9867, "Indian</w>": 9868, "Indians": 9869, "Diego</w>": 9870, "stoneYou</w>": 9871, "flagThe</w>": 9872, "flagGeorge</w>": 9873, "EnglishAustralians</w>": 9874, "worldAustralians</w>": 9875, "workCom": 9876, "MuskThe</w>": 9877, "KingdomGreat</w>": 9878, "fright": 9879, "rightThere</w>": 9880, "rightful</w>": 9881, "upright": 9882, "CityLondon</w>": 9883, "IndiaIn</w>": 9884, "IndiaEngland</w>": 9885, "USIndia": 9886, "IndiaChina</w>": 9887, "IndiaMexico</w>": 9888, "IndiaBrits</w>": 9889, "catfish</w>": 9890, "social": 9891, "this": 9892, "ateSome</w>": 9893, "UKWeed</w>": 9894, "GermanyWeed</w>": 9895, "Holland": 9896, "IndiaWeed</w>": 9897, "downThe</w>": 9898, "downIf</w>": 9899, "downCl": 9900, "poisonous</w>": 9901, "UKIndi": 9902, "illegalAl": 9903, "languageLatinos</w>": 9904, "IrelandLuxembourg</w>": 9905, "schoolRichard</w>": 9906, "futureI</w>": 9907, "futureYou</w>": 9908, "futureIf</w>": 9909, "futureThere</w>": 9910, "futureThis</w>": 9911, "commentAccording</w>": 9912, "outAccording</w>": 9913, "apple": 9914, "humanity": 9915, "worldAgenda</w>": 9916, "double": 9917, "Lavigne": 9918, "Kam": 9919, "Amala</w>": 9920, "Puer": 9921, "Italian": 9922, "bullet</w>": 9923, "Adam": 9924, "Triang": 9925, "SeattleThe</w>": 9926, "Jack": 9927, "Ultr": 9928, "chew": 9929, "cheat": 9930, "chee": 9931, "chef": 9932, "cheaper</w>": 9933, "speciesNo</w>": 9934, "purposesNo</w>": 9935, "ageNothing</w>": 9936, "ageAll</w>": 9937, "fum": 9938, "posesYou</w>": 9939, "eyesYou</w>": 9940, "placesYou</w>": 9941, "voic": 9942, "command": 9943, "demonsYou</w>": 9944, "fluid": 9945, "element": 9946, "handsYou</w>": 9947, "word": 9948, "spas": 9949, "breaksIf</w>": 9950, "nostr": 9951, "AID": 9952, "AmericaAm": 9953, "CanadaAmerica": 9954, "Lis": 9955, "potThe</w>": 9956, "saltThe</w>": 9957, "gian": 9958, "upse": 9959, "MozartThe</w>": 9960, "larger": 9961, "longer": 9962, "sting": 9963, "links</w>": 9964, "strict</w>": 9965, "drop": 9966, "fake": 9967, "gif": 9968, "posses": 9969, "CodThe</w>": 9970, "fem": 9971, "Arabic</w>": 9972, "Arabia": 9973, "disag": 9974, "murdered</w>": 9975, "rat": 9976, "lover": 9977, "carsAll</w>": 9978, "catsAll</w>": 9979, "thunder": 9980, "cowar": 9981, "sailors</w>": 9982, "ChinaThere</w>": 9983, "ChinaIn</w>": 9984, "ChinaPeople</w>": 9985, "ChinaAmericans</w>": 9986, "ChinaSingapore</w>": 9987, "classi": 9988, "GermanThe</w>": 9989, "GermanGerman</w>": 9990, "outfits</w>": 9991, "director</w>": 9992, "chir": 9993, "symp": 9994, "psi": 9995, "futureBem</w>": 9996, "Milleni": 9997, "Miller": 9998, "TrumpThe</w>": 9999, "McC": 10000, "UFOs": 10001, "Act": 10002, "models</w>": 10003, "modelYes</w>": 10004, "shrooms</w>": 10005, "ClintonShe</w>": 10006, "successF": 10007, "Mag": 10008, "PhysicsJohn</w>": 10009, "ghostsIn": 10010, "ghostsGe": 10011, "ghostsD": 10012, "familyThis</w>": 10013, "languageHispanics</w>": 10014, "threatSome</w>": 10015, "canid": 10016, "exercising": 10017, "fever": 10018, "tract": 10019, "glass": 10020, "serve</w>": 10021, "serving</w>": 10022, "series</w>": 10023, "serial</w>": 10024, "dieNo</w>": 10025, "dieYes</w>": 10026, "dieting</w>": 10027, "dieA</w>": 10028, "dieYour</w>": 10029, "Touri": 10030, "Bail": 10031, "Bird</w>": 10032, "Bird": 10033, "girls</w>": 10034, "slave</w>": 10035, "slavery</w>": 10036, "VII": 10037, "thingYes</w>": 10038, "doingYes</w>": 10039, "cookingYes</w>": 10040, "least": 10041, "leaving</w>": 10042, "happensIt</w>": 10043, "callsIt</w>": 10044, "donor": 10045, "enforce</w>": 10046, "leading</w>": 10047, "trend": 10048, "timeDay</w>": 10049, "maiden</w>": 10050, "seaflo": 10051, "intense</w>": 10052, "practi": 10053, "Unit": 10054, "rigg": 10055, "increasedThe</w>": 10056, "specifi": 10057, "restor": 10058, "competi": 10059, "cultures</w>": 10060, "prefac": 10061, "facts": 10062, "rescue": 10063, "modif": 10064, "extraterrestrialIt</w>": 10065, "extraterrestrialScientists</w>": 10066, "MuslimThe</w>": 10067, "MuslimThere</w>": 10068, "MuslimFrance</w>": 10069, "MuslimGermany</w>": 10070, "MuslimsNo</w>": 10071, "MuslimAl": 10072, "MuslimTurkey</w>": 10073, "deplete": 10074, "depletes</w>": 10075, "rebe": 10076, "EnglandE": 10077, "Ky": 10078, "CaliforniaFortune</w>": 10079, "JapanFortune</w>": 10080, "ChinaFortune</w>": 10081, "spont": 10082, "problems</w>": 10083, "watermelons</w>": 10084, "avoided</w>": 10085, "AustraliaDogs</w>": 10086, "distingu": 10087, "Egypti": 10088, "scan": 10089, "PrizeFeynman</w>": 10090, "PhysicsFeynman</w>": 10091, "cent": 10092, "SI": 10093, "commentAn</w>": 10094, "dieAn</w>": 10095, "ye": 10096, "arth": 10097, "Betis</w>": 10098, "Palau": 10099, "soli": 10100, "monso": 10101, "soil</w>": 10102, "sodi": 10103, "wildly</w>": 10104, "mummy": 10105, "style": 10106, "Beng": 10107, "figAccording</w>": 10108, "figur": 10109, "Camel</w>": 10110, "futureW": 10111, "useNo</w>": 10112, "nause": 10113, "useLos</w>": 10114, "Vati": 10115, "thingNo</w>": 10116, "cookingNo</w>": 10117, "lyingNo</w>": 10118, "poisoningNo</w>": 10119, "breastfeedingNo</w>": 10120, "instan": 10121, "meaning": 10122, "misde": 10123, "Rap</w>": 10124, "Raid": 10125, "diz": 10126, "penn": 10127, "skyIf</w>": 10128, "agoAn</w>": 10129, "clothesYou</w>": 10130, "dayNo</w>": 10131, "today": 10132, "daysIt</w>": 10133, "heading</w>": 10134, "headFood</w>": 10135, "headach": 10136, "headMen</w>": 10137, "confused</w>": 10138, "colony</w>": 10139, "colony": 10140, "colonist</w>": 10141, "Mix</w>": 10142, "career": 10143, "carni": 10144, "Frank": 10145, "snap</w>": 10146, "superhuman</w>": 10147, "logical</w>": 10148, "Charms</w>": 10149, "Rock": 10150, "transl": 10151, "translated</w>": 10152, "transmit</w>": 10153, "YorkIt</w>": 10154, "YorkLondon</w>": 10155, "YorkParis</w>": 10156, "CityYork": 10157, "pillar</w>": 10158, "internal</w>": 10159, "allGold</w>": 10160, "upGold</w>": 10161, "downGold</w>": 10162, "passed</w>": 10163, "passage</w>": 10164, "passage": 10165, "RussiaIt</w>": 10166, "RussiaUnited</w>": 10167, "RussiaIndia</w>": 10168, "Moley": 10169, "aliensNo</w>": 10170, "godsIf</w>": 10171, "schoolMark</w>": 10172, "cancerNo</w>": 10173, "cancerYou</w>": 10174, "cancerAll</w>": 10175, "cancerApples</w>": 10176, "StatesFranceThe</w>": 10177, "fingerNothing</w>": 10178, "organizations</w>": 10179, "passportThe</w>": 10180, "consistent</w>": 10181, "forth": 10182, "physics": 10183, "airplan": 10184, "flight": 10185, "caught": 10186, "Pursuit</w>": 10187, "Princi": 10188, "GermanyProstitution</w>": 10189, "yearsLSD</w>": 10190, "yearsGold</w>": 10191, "NetherlandsMexicans</w>": 10192, "NetherlandsBrits</w>": 10193, "NetherlandsProstitution</w>": 10194, "developed": 10195, "inconclusive": 10196, "fraudThe</w>": 10197, "fraudsThe</w>": 10198, "fraudEveryone</w>": 10199, "commentNicole</w>": 10200, "suffer": 10201, "sites": 10202, "Toy</w>": 10203, "Toast</w>": 10204, "Saling": 10205, "freed": 10206, "renal</w>": 10207, "oilThe</w>": 10208, "oilFrance</w>": 10209, "oilsThe</w>": 10210, "oilGermany</w>": 10211, "push</w>": 10212, "nostal": 10213, "pigment</w>": 10214, "Tigger</w>": 10215, "koal": 10216, "bored": 10217, "Marl": 10218, "remov": 10219, "patent</w>": 10220, "patro": 10221, "patr": 10222, "dogI</w>": 10223, "dogsNo</w>": 10224, "dogsAll</w>": 10225, "echo": 10226, "choic": 10227, "dehy": 10228, "confron": 10229, "peopleThe</w>": 10230, "device</w>": 10231, "commentTom</w>": 10232, "vapor": 10233, "gayOn": 10234, "scien": 10235, "numberThe</w>": 10236, "sauc": 10237, "Aden": 10238, "speakerThe</w>": 10239, "Moroc": 10240, "Private</w>": 10241, "AmericansYes</w>": 10242, "AmericansAmericans</w>": 10243, "AmericansMore</w>": 10244, "AmericansTurkey</w>": 10245, "AmericansMexico": 10246, "Christma": 10247, "commentCats</w>": 10248, "reasons": 10249, "addictive</w>": 10250, "Lipp": 10251, "gripp": 10252, "Asimo": 10253, "twenti": 10254, "brainBrain</w>": 10255, "gainIf</w>": 10256, "gainYour</w>": 10257, "Raini": 10258, "similar": 10259, "fired": 10260, "spiritsYes</w>": 10261, "spiritsA</w>": 10262, "AfricaPeople</w>": 10263, "AfricaBarack</w>": 10264, "AfricaAl": 10265, "FranceAlmost</w>": 10266, "CanadaAlmost</w>": 10267, "EnglandNo": 10268, "CaliforniaAlmost</w>": 10269, "SpainAlmost</w>": 10270, "ZealandAlmost</w>": 10271, "roundAll</w>": 10272, "surround": 10273, "realDe": 10274, "Charles</w>": 10275, "UKCanadaThe</w>": 10276, "dayD": 10277, "Virgin</w>": 10278, "autismI</w>": 10279, "autismYou</w>": 10280, "soph": 10281, "demonstratedC": 10282, "coughingNo</w>": 10283, "acronymThe</w>": 10284, "atAsians</w>": 10285, "UKHitting</w>": 10286, "illegalHitting</w>": 10287, "happenDreams</w>": 10288, "fear": 10289, "desir": 10290, "upbitcoin</w>": 10291, "downbitcoin</w>": 10292, "yearsbitcoin</w>": 10293, "lightVeins</w>": 10294, "thic": 10295, "blon": 10296, "dens": 10297, "luckBroomsticks</w>": 10298, "magic": 10299, "BangStars</w>": 10300, "nutrient</w>": 10301, "nutrition</w>": 10302, "nutritional</w>": 10303, "nutrient": 10304, "foodType</w>": 10305, "desser": 10306, "ageType</w>": 10307, "acclaimed</w>": 10308, "Wakefiel": 10309, "fireFiremen</w>": 10310, "downElectronics</w>": 10311, "FranciscoThe</w>": 10312, "FranciscoIt</w>": 10313, "FranciscoSan</w>": 10314, "FranciscoFortune</w>": 10315, "guaranteed</w>": 10316, "hysterectomyNo</w>": 10317, "hysterectomyYes</w>": 10318, "experiment": 10319, "HI": 10320, "Mae</w>": 10321, "panda": 10322, "Rita</w>": 10323, "Baha": 10324, "Centr": 10325, "conc": 10326, "hairIf</w>": 10327, "hairIt</w>": 10328, "hairNothing</w>": 10329, "hairMen</w>": 10330, "hairBlondes</w>": 10331, "Gla": 10332, "dishes</w>": 10333, "rashes</w>": 10334, "crashes</w>": 10335, "enfor": 10336, "Froot</w>": 10337, "ringThere</w>": 10338, "indoor</w>": 10339, "rulesYes</w>": 10340, "rulesNo</w>": 10341, "easy</w>": 10342, "easil": 10343, "account</w>": 10344, "sesame</w>": 10345, "lives": 10346, "waves": 10347, "Heim": 10348, "Heine": 10349, "chr": 10350, "USMad": 10351, "gayLess</w>": 10352, "Stripe": 10353, "Stripes</w>": 10354, "Blake</w>": 10355, "Presid": 10356, "continent</w>": 10357, "continues</w>": 10358, "dating": 10359, "Taylor": 10360, "quok": 10361, "quoted</w>": 10362, "quotation</w>": 10363, "Lawr": 10364, "aging": 10365, "qual": 10366, "DNC</w>": 10367, "cards": 10368, "clouds": 10369, "converted</w>": 10370, "batsAll</w>": 10371, "staged": 10372, "damaged": 10373, "progress</w>": 10374, "program</w>": 10375, "programs</w>": 10376, "beliefs</w>": 10377, "trainers": 10378, "MexicansMexico</w>": 10379, "MexicansCanadians</w>": 10380, "MexicansNoNo</w>": 10381, "MexicansYesYes</w>": 10382, "National</w>": 10383, "gravit": 10384, "additional</w>": 10385, "farmers</w>": 10386, "farmingNo</w>": 10387, "dancing": 10388, "dancingThe</w>": 10389, "manners</w>": 10390, "maneu": 10391, "timekeep": 10392, "richIf</w>": 10393, "Sundays</w>": 10394, "Alab": 10395, "powersNo</w>": 10396, "powersYou</w>": 10397, "powersThere</w>": 10398, "EuropeansNo</w>": 10399, "EuropeansIn</w>": 10400, "EuropeansAmericans</w>": 10401, "EuropeansNoNo</w>": 10402, "EuropeansYesYes</w>": 10403, "policy</w>": 10404, "parentsThe</w>": 10405, "parentsI</w>": 10406, "atheist</w>": 10407, "reserved": 10408, "businesses": 10409, "ChinaThey</w>": 10410, "Taiw": 10411, "AfricaMuslim</w>": 10412, "sugarYes</w>": 10413, "sugarType</w>": 10414, "sugarPink</w>": 10415, "placeNo</w>": 10416, "placeYes</w>": 10417, "placeBielefeld</w>": 10418, "placeSome</w>": 10419, "decrease</w>": 10420, "decreases</w>": 10421, "decreaseYou</w>": 10422, "implied</w>": 10423, "AngelesLos</w>": 10424, "AngelesFortune</w>": 10425, "houseYour</w>": 10426, "housework": 10427, "biological</w>": 10428, "gy": 10429, "systemNo</w>": 10430, "systemYou</w>": 10431, "systemIf</w>": 10432, "systems": 10433, "systemApples</w>": 10434, "atmo": 10435, "upWaking</w>": 10436, "GermanyCannabis</w>": 10437, "inju": 10438, "redMy</w>": 10439, "tired": 10440, "bulbs": 10441, "sizes": 10442, "Prope": 10443, "Brunettes</w>": 10444, "attribued</w>": 10445, "UKBurning</w>": 10446, "USBurning</w>": 10447, "butterJohn</w>": 10448, "inflationThere</w>": 10449, "inflationGold</w>": 10450, "commentHogwarts</w>": 10451, "Soviet": 10452, "clothes": 10453, "farmers": 10454, "timeShips</w>": 10455, "error": 10456, "mate": 10457, "chamele": 10458, "tortoises</w>": 10459, "realPar": 10460, "opinions</w>": 10461, "opinion": 10462, "sink": 10463, "withdraw</w>": 10464, "peopleThere</w>": 10465, "peopleCanada</w>": 10466, "peopleChina": 10467, "cit": 10468, "flavor": 10469, "PrizeAlbert</w>": 10470, "familyChartreuse</w>": 10471, "FranceUlysses</w>": 10472, "CanadaUlysses</w>": 10473, "EnglandUlysses</w>": 10474, "CaliforniaUlysses</w>": 10475, "SpainUlysses</w>": 10476, "ZealandUlysses</w>": 10477, "autismWakefield</w>": 10478, "home": 10479, "foodSticking</w>": 10480, "vertebrates": 10481, "childrenNo</w>": 10482, "childrenMy</w>": 10483, "demonstratedESP</w>": 10484, "cigaret": 10485, "Moore": 10486, "Camp": 10487, "Livel": 10488, "damage": 10489, "cancerAspartame</w>": 10490, "peopleAspartame</w>": 10491, "sinImmaculate</w>": 10492, "concep": 10493, "Jesus": 10494, "tradi": 10495, "clothing": 10496, "Pa": 10497, "polynomial": 10498, "pH</w>": 10499, "fatally</w>": 10500, "fatalYou</w>": 10501, "PrizeThom": 10502, "shoot</w>": 10503, "shad": 10504, "shaving</w>": 10505, "capsa": 10506, "commentAm": 10507, "DUI": 10508, "radiation</w>": 10509, "bribe</w>": 10510, "UniversityCam": 10511, "happenTar": 10512, "ATM": 10513, "reading</w>": 10514, "readIt</w>": 10515, "readThere</w>": 10516, "deadNo</w>": 10517, "deadIt</w>": 10518, "fallIt</w>": 10519, "waterfall": 10520, "Louisian": 10521, "kronaYou</w>": 10522, "stres": 10523, "pressed</w>": 10524, "Brown</w>": 10525, "Brans": 10526, "Bry": 10527, "symb": 10528, "colored</w>": 10529, "colorUnknown": 10530, "burned": 10531, "particle": 10532, "morning": 10533, "intr": 10534, "addicted": 10535, "elseUnited</w>": 10536, "elseArgentina": 10537, "married": 10538, "EarthThe</w>": 10539, "EarthWe</w>": 10540, "fairy</w>": 10541, "fairYou</w>": 10542, "composerI</w>": 10543, "Ferm": 10544, "calori": 10545, "inpu": 10546, "objectsI</w>": 10547, "ItalyThe</w>": 10548, "hoursThere</w>": 10549, "hoursMexicans</w>": 10550, "hoursNoNo</w>": 10551, "hoursYesYes</w>": 10552, "travels</w>": 10553, "militar": 10554, "effectsYou</w>": 10555, "Mup": 10556, "electionHillary</w>": 10557, "electionBarack</w>": 10558, "electionGeorge</w>": 10559, "electionJohn</w>": 10560, "antiox": 10561, "trade": 10562, "offensi": 10563, "offender": 10564, "offende": 10565, "Cerv": 10566, "references</w>": 10567, "ParisLos</w>": 10568, "ParisHong</w>": 10569, "HarvardIf</w>": 10570, "uncontrol": 10571, "Garner</w>": 10572, "gallows</w>": 10573, "appeared</w>": 10574, "appearYou</w>": 10575, "CatholicYes</w>": 10576, "Catholicis": 10577, "CatholicsNo</w>": 10578, "Catholics": 10579, "CatholicsYes</w>": 10580, "CatholicMost</w>": 10581, "waterDrinking</w>": 10582, "detector</w>": 10583, "detectable</w>": 10584, "nightYou</w>": 10585, "nightNothing</w>": 10586, "nighttime</w>": 10587, "nightmar": 10588, "straightAll</w>": 10589, "straightMost</w>": 10590, "straightMore</w>": 10591, "straightLess</w>": 10592, "mixed": 10593, "VirginiaNew</w>": 10594, "VirginiaWest</w>": 10595, "VirginiaCalifornia": 10596, "Tit": 10597, "alcoholI</w>": 10598, "alcoholThere</w>": 10599, "replicateThe</w>": 10600, "replicateNothing</w>": 10601, "replicateBem</w>": 10602, "sameNo</w>": 10603, "sameThere</w>": 10604, "clo": 10605, "Washing": 10606, "bacteria": 10607, "antibacter": 10608, "EnglandBritainThe</w>": 10609, "USBrazil</w>": 10610, "MexicoBrazil</w>": 10611, "contact": 10612, "vomit": 10613, "upVomitoriums</w>": 10614, "irritant</w>": 10615, "consequence</w>": 10616, "ChicagoLondon</w>": 10617, "powersNothing": 10618, "lieUndercover</w>": 10619, "themsel": 10620, "powersUndercover</w>": 10621, "precogni": 10622, "performance": 10623, "performanceNo</w>": 10624, "demonstratedGhosts</w>": 10625, "employerThe</w>": 10626, "med": 10627, "FranceLolita</w>": 10628, "CanadaLolita</w>": 10629, "CaliforniaLolita</w>": 10630, "SpainLolita</w>": 10631, "ZealandLolita</w>": 10632, "snowing": 10633, "dayNowhereThere</w>": 10634, "upProperty</w>": 10635, "downProperty</w>": 10636, "yearsProperty</w>": 10637, "inflationProperty</w>": 10638, "USCannibal</w>": 10639, "FranceCannibal</w>": 10640, "CanadaCannibal</w>": 10641, "AustraliaCannibal</w>": 10642, "BritainCannibal</w>": 10643, "NetherlandsCannibal</w>": 10644, "Cu": 10645, "stomach</w>": 10646, "sl": 10647, "shopp": 10648, "towers</w>": 10649, "towards</w>": 10650, "brush</w>": 10651, "Ni": 10652, "Camels</w>": 10653, "inches</w>": 10654, "crun": 10655, "existWit": 10656, "mostThe</w>": 10657, "firstThe</w>": 10658, "pastThe</w>": 10659, "postThe</w>": 10660, "EastThe</w>": 10661, "Chicago</w>": 10662, "reaction</w>": 10663, "mood": 10664, "parrots</w>": 10665, "decadesCar": 10666, "countYou</w>": 10667, "brac": 10668, "alleged</w>": 10669, "alleged": 10670, "formThe</w>": 10671, "formIt</w>": 10672, "Sat": 10673, "decadesK": 10674, "FrenchThe</w>": 10675, "Crun": 10676, "Friends</w>": 10677, "pm": 10678, "smoke": 10679, "explor": 10680, "interfer": 10681, "addi": 10682, "founder": 10683, "founding</w>": 10684, "order": 10685, "armsA</w>": 10686, "handsA</w>": 10687, "waysA</w>": 10688, "pillsA</w>": 10689, "Chel": 10690, "YearAll</w>": 10691, "YearDonald</w>": 10692, "YearBill</w>": 10693, "YearBarack</w>": 10694, "YearGeorge</w>": 10695, "execu": 10696, "juices</w>": 10697, "poorNo</w>": 10698, "lessYes</w>": 10699, "ruth": 10700, "colorless": 10701, "lessNowhereThere</w>": 10702, "occurYou</w>": 10703, "promo": 10704, "themLe": 10705, "ChristiansJewish</w>": 10706, "warmer</w>": 10707, "warmth</w>": 10708, "warmingThe</w>": 10709, "warmingYes</w>": 10710, "warmth": 10711, "crimes</w>": 10712, "accum": 10713, "unreg": 10714, "pum": 10715, "womenNo</w>": 10716, "secretsThe</w>": 10717, "MassachusettsThe</w>": 10718, "RussiansThe</w>": 10719, "RussiansAmerica</w>": 10720, "RussiansVery</w>": 10721, "SwitzerlandThe</w>": 10722, "thinkersYes</w>": 10723, "ulcersYes</w>": 10724, "ItaliansT": 10725, "ItaliansCanadians</w>": 10726, "biasNo</w>": 10727, "biasIf</w>": 10728, "truthThe</w>": 10729, "truthYou</w>": 10730, "truthThere</w>": 10731, "truthScientists</w>": 10732, "contacted</w>": 10733, "attracted</w>": 10734, "abiliti": 10735, "cigarett": 10736, "studentI</w>": 10737, "kitt": 10738, "JewsNo</w>": 10739, "GermansAmericans</w>": 10740, "Obam": 10741, "FloridaThe</w>": 10742, "AlaskaThe</w>": 10743, "clothingIt</w>": 10744, "protected</w>": 10745, "astero": 10746, "winemaking</w>": 10747, "miracles</w>": 10748, "Miracles</w>": 10749, "personalityIt</w>": 10750, "personalityA</w>": 10751, "personalitySch": 10752, "reportIt</w>": 10753, "reportDo</w>": 10754, "licen": 10755, "influences</w>": 10756, "religionN": 10757, "CitySher": 10758, "survive": 10759, "purposely</w>": 10760, "severely</w>": 10761, "wolfThe</w>": 10762, "wolfYes</w>": 10763, "governmentThe</w>": 10764, "governmentArea</w>": 10765, "governmentScientists</w>": 10766, "GoAn</w>": 10767, "God": 10768, "priming</w>": 10769, "primates": 10770, "lawDis": 10771, "humanArtificial</w>": 10772, "intelligenceYes</w>": 10773, "intelligenceNoNo</w>": 10774, "swimmingIf</w>": 10775, "swimmingNothing</w>": 10776, "JapanPo": 10777, "AustraliaCom": 10778, "PhiladelphiaParis</w>": 10779, "PhiladelphiaAmsterdam</w>": 10780, "communicate": 10781, "communications</w>": 10782, "scientistsThere</w>": 10783, "scientistsChinese</w>": 10784, "quantiti": 10785, "awayThe</w>": 10786, "awayNo</w>": 10787, "awayIf</w>": 10788, "awayApples</w>": 10789, "awayStars</w>": 10790, "SeattleBoston</w>": 10791, "SeattleP": 10792, "SeattleSeattle</w>": 10793, "Estonia": 10794, "ofIndians</w>": 10795, "BostonNew</w>": 10796, "BostonSan</w>": 10797, "Average": 10798, "rice": 10799, "SpanishThe</w>": 10800, "JoseIt</w>": 10801, "FranciscoJose": 10802, "Berkeley</w>": 10803, "experienced</w>": 10804, "recreational</w>": 10805, "Hawaii</w>": 10806, "ribsMen</w>": 10807, "richestUruguay</w>": 10808, "parentsSomeone</w>": 10809, "telepathy</w>": 10810, "telepathic</w>": 10811, "telepathyThe</w>": 10812, "humansEagles</w>": 10813, "prohibit</w>": 10814, "prohibits</w>": 10815, "engineered</w>": 10816, "engineerI</w>": 10817, "bannedA</w>": 10818, "bannedUlysses</w>": 10819, "ghostsTherm": 10820, "HarvardNo</w>": 10821, "pentagram": 10822, "Qaeda": 10823, "QaedaThe</w>": 10824, "Kentucky": 10825, "KentuckyThere</w>": 10826, "cryptids</w>": 10827, "cryptidThe</w>": 10828, "ripe": 10829, "sourFoxes</w>": 10830, "dogs": 10831, "reachFoxes</w>": 10832, "breakfastNo</w>": 10833, "breakfastOn</w>": 10834, "conspiracies</w>": 10835, "conspiracyThere</w>": 10836, "Tarpenning": 10837, "EconomicsPaul</w>": 10838, "Jane</w>": 10839, "analog": 10840, "Ral": 10841, "timeSte": 10842, "Hit": 10843, "But": 10844, "Cin": 10845, "nameYou</w>": 10846, "faith": 10847, "Smith": 10848, "Ganor</w>": 10849, "split</w>": 10850, "Ruth": 10851, "fewer": 10852, "Darwin</w>": 10853, "thirty</w>": 10854, "combat</w>": 10855, "combating</w>": 10856, "SunThe</w>": 10857, "silent</w>": 10858, "silver</w>": 10859, "silent": 10860, "missil": 10861, "type": 10862, "moviesI</w>": 10863, "vaccinesI</w>": 10864, "conv": 10865, "contention</w>": 10866, "swinging</w>": 10867, "Oui": 10868, "lapYes</w>": 10869, "Saur": 10870, "outdoor": 10871, "doorMost</w>": 10872, "Simon</w>": 10873, "retr": 10874, "catar": 10875, "protection</w>": 10876, "immediat": 10877, "richRich</w>": 10878, "peopleRich</w>": 10879, "bossI</w>": 10880, "placebos": 10881, "Abdu": 10882, "trade</w>": 10883, "invade</w>": 10884, "alumin": 10885, "taxes": 10886, "taxon": 10887, "Shim": 10888, "resol": 10889, "vas": 10890, "stress": 10891, "daw": 10892, "predate</w>": 10893, "shini": 10894, "asked": 10895, "ItalianThe</w>": 10896, "USAmeric": 10897, "AustrianThe</w>": 10898, "cele": 10899, "hanging": 10900, "hangedThe</w>": 10901, "prospec": 10902, "accid": 10903, "accident</w>": 10904, "timesA</w>": 10905, "timesPeople</w>": 10906, "deathNo</w>": 10907, "deaths": 10908, "deathsThe</w>": 10909, "deathWalt</w>": 10910, "realRe": 10911, "colleag": 10912, "monthYes</w>": 10913, "usedThere</w>": 10914, "mixedThere</w>": 10915, "scar": 10916, "fictionalYou</w>": 10917, "digging": 10918, "disap": 10919, "dinos": 10920, "dinosaur": 10921, "float": 10922, "bestThe</w>": 10923, "bestPeople</w>": 10924, "bestowed</w>": 10925, "society</w>": 10926, "Merce": 10927, "getMer": 10928, "sickIf</w>": 10929, "sickApples</w>": 10930, "examin": 10931, "lampIf</w>": 10932, "animalNo</w>": 10933, "animalsNo</w>": 10934, "thousand</w>": 10935, "Gasper</w>": 10936, "cheese": 10937, "Canton": 10938, "gradesNo</w>": 10939, "heartYes</w>": 10940, "lotYes</w>": 10941, "saltYes</w>": 10942, "indiges": 10943, "riceIf</w>": 10944, "ropeIf</w>": 10945, "sizeIf</w>": 10946, "frost": 10947, "assume</w>": 10948, "AucklandThe</w>": 10949, "carbo": 10950, "fatEating</w>": 10951, "operating</w>": 10952, "opera": 10953, "numbersNo</w>": 10954, "ulcersNo</w>": 10955, "gold": 10956, "lesbi": 10957, "musicNo</w>": 10958, "musicYes</w>": 10959, "musicIt</w>": 10960, "musicAvril</w>": 10961, "Founding</w>": 10962, "Ruhr</w>": 10963, "drinkYou</w>": 10964, "drinkMil": 10965, "character</w>": 10966, "commentUnknown</w>": 10967, "workUnknown</w>": 10968, "knownUnknown</w>": 10969, "gayUnknown</w>": 10970, "minded</w>": 10971, "mindI</w>": 10972, "mediums": 10973, "dietsNo</w>": 10974, "planetsNo</w>": 10975, "Raphael</w>": 10976, "extreme</w>": 10977, "Quar": 10978, "Januar": 10979, "languagesAll</w>": 10980, "languagesLatin</w>": 10981, "languagesLatinos</w>": 10982,
[...]
